{"version":"1.0","truncation":null,"padding":null,"added_tokens":[{"id":0,"special":true,"content":"[PAD]","single_word":false,"lstrip":false,"rstrip":false,"normalized":false},{"id":1,"special":true,"content":"[UNK]","single_word":false,"lstrip":false,"rstrip":false,"normalized":false},{"id":2,"special":true,"content":"[CLS]","single_word":false,"lstrip":false,"rstrip":false,"normalized":false},{"id":3,"special":true,"content":"[SEP]","single_word":false,"lstrip":false,"rstrip":false,"normalized":false},{"id":4,"special":true,"content":"[MASK]","single_word":false,"lstrip":false,"rstrip":false,"normalized":false}],"normalizer":{"type":"BertNormalizer","clean_text":true,"handle_chinese_chars":true,"strip_accents":null,"lowercase":false},"pre_tokenizer":{"type":"BertPreTokenizer"},"post_processor":{"type":"TemplateProcessing","single":[{"SpecialToken":{"id":"[CLS]","type_id":0}},{"Sequence":{"id":"A","type_id":0}},{"SpecialToken":{"id":"[SEP]","type_id":0}}],"pair":[{"SpecialToken":{"id":"[CLS]","type_id":0}},{"Sequence":{"id":"A","type_id":0}},{"SpecialToken":{"id":"[SEP]","type_id":0}},{"Sequence":{"id":"B","type_id":1}},{"SpecialToken":{"id":"[SEP]","type_id":1}}],"special_tokens":{"[CLS]":{"id":"[CLS]","ids":[2],"tokens":["[CLS]"]},"[SEP]":{"id":"[SEP]","ids":[3],"tokens":["[SEP]"]}}},"decoder":{"type":"WordPiece","prefix":"##","cleanup":true},"model":{"type":"WordPiece","unk_token":"[UNK]","continuing_subword_prefix":"##","max_input_chars_per_word":100,"vocab":{"[PAD]":0,"[UNK]":1,"[CLS]":2,"[SEP]":3,"[MASK]":4,"!":5,"\"":6,"#":7,"$":8,"%":9,"&":10,"'":11,"(":12,")":13,"*":14,"+":15,",":16,"-":17,".":18,"/":19,"0":20,"1":21,"2":22,"3":23,"4":24,"5":25,"6":26,"7":27,"8":28,"9":29,":":30,";":31,"=":32,"?":33,"@":34,"A":35,"B":36,"C":37,"D":38,"E":39,"F":40,"G":41,"H":42,"I":43,"J":44,"K":45,"L":46,"M":47,"N":48,"O":49,"P":50,"Q":51,"R":52,"S":53,"T":54,"U":55,"V":56,"W":57,"X":58,"Y":59,"Z":60,"[":61,"\\":62,"]":63,"^":64,"_":65,"`":66,"a":67,"b":68,"c":69,"d":70,"e":71,"f":72,"g":73,"h":74,"i":75,"j":76,"k":77,"l":78,"m":79,"n":80,"o":81,"p":82,"q":83,"r":84,"s":85,"t":86,"u":87,"v":88,"w":89,"x":90,"y":91,"z":92,"{":93,"|":94,"}":95,"~":96,"·":97,"∼":98,"ㄱ":99,"ㄲ":100,"ㄳ":101,"ㄴ":102,"ㄶ":103,"ㄷ":104,"ㄸ":105,"ㄹ":106,"ㄺ":107,"ㄻ":108,"ㅀ":109,"ㅁ":110,"ㅂ":111,"ㅃ":112,"ㅄ":113,"ㅅ":114,"ㅆ":115,"ㅇ":116,"ㅈ":117,"ㅉ":118,"ㅊ":119,"ㅋ":120,"ㅌ":121,"ㅍ":122,"ㅎ":123,"ㅏ":124,"ㅐ":125,"ㅑ":126,"ㅒ":127,"ㅓ":128,"ㅔ":129,"ㅕ":130,"ㅖ":131,"ㅗ":132,"ㅘ":133,"ㅙ":134,"ㅚ":135,"ㅛ":136,"ㅜ":137,"ㅝ":138,"ㅞ":139,"ㅟ":140,"ㅠ":141,"ㅡ":142,"ㅢ":143,"ㅣ":144,"가":145,"각":146,"갂":147,"갃":148,"간":149,"갅":150,"갆":151,"갇":152,"갈":153,"갉":154,"갊":155,"갋":156,"갏":157,"감":158,"갑":159,"값":160,"갓":161,"갔":162,"강":163,"갖":164,"갗":165,"갘":166,"같":167,"갚":168,"갛":169,"개":170,"객":171,"갞":172,"갠":173,"갢":174,"갣":175,"갤":176,"갬":177,"갭":178,"갮":179,"갯":180,"갰":181,"갱":182,"갲":183,"갴":184,"갵":185,"갶":186,"갷":187,"갸":188,"갹":189,"갼":190,"걀":191,"걈":192,"걉":193,"걊":194,"걋":195,"걌":196,"걍":197,"걑":198,"걔":199,"걘":200,"걩":201,"거":202,"걱":203,"걲":204,"건":205,"걵":206,"걷":207,"걸":208,"걹":209,"검":210,"겁":211,"겂":212,"것":213,"겄":214,"겅":215,"겆":216,"겇":217,"겈":218,"겉":219,"겊":220,"겋":221,"게":222,"겍":223,"겎":224,"겐":225,"겓":226,"겔":227,"겜":228,"겝":229,"겟":230,"겠":231,"겡":232,"겢":233,"겣":234,"겤":235,"겥":236,"겦":237,"겧":238,"겨":239,"격":240,"겪":241,"견":242,"겯":243,"결":244,"겱":245,"겷":246,"겸":247,"겹":248,"겻":249,"겼":250,"경":251,"겾":252,"곀":253,"곁":254,"곂":255,"곃":256,"계":257,"곅":258,"곈":259,"곌":260,"곗":261,"곘":262,"곙":263,"고":264,"곡":265,"곤":266,"곧":267,"골":268,"곪":269,"곬":270,"곯":271,"곰":272,"곱":273,"곳":274,"공":275,"곶":276,"곷":277,"곸":278,"곹":279,"곺":280,"곻":281,"과":282,"곽":283,"관":284,"괁":285,"괂":286,"괄":287,"괌":288,"괍":289,"괏":290,"광":291,"괒":292,"괘":293,"괙":294,"괜":295,"괞":296,"괬":297,"괭":298,"괴":299,"괵":300,"괸":301,"괼":302,"굉":303,"교":304,"굑":305,"굔":306,"굘":307,"굡":308,"굣":309,"굥":310,"굨":311,"굫":312,"구":313,"국":314,"굮":315,"굯":316,"군":317,"굳":318,"굴":319,"굵":320,"굶":321,"굷":322,"굻":323,"굼":324,"굽":325,"굿":326,"궁":327,"궂":328,"궃":329,"궄":330,"궅":331,"궇":332,"궈":333,"궉":334,"권":335,"궍":336,"궐":337,"궘":338,"궙":339,"궛":340,"궜":341,"궝":342,"궤":343,"궥":344,"궨":345,"궷":346,"궸":347,"궹":348,"귀":349,"귁":350,"귄":351,"귈":352,"귐":353,"귑":354,"귓":355,"귕":356,"규":357,"귝":358,"균":359,"귤":360,"귯":361,"귱":362,"그":363,"극":364,"근":365,"귾":366,"귿":367,"글":368,"긁":369,"긂":370,"긇":371,"금":372,"급":373,"긋":374,"긌":375,"긍":376,"긎":377,"긐":378,"긑":379,"긒":380,"긓":381,"긔":382,"긕":383,"긘":384,"긜":385,"긤":386,"긧":387,"기":388,"긱":389,"긴":390,"긷":391,"길":392,"긿":393,"김":394,"깁":395,"깂":396,"깃":397,"깄":398,"깅":399,"깆":400,"깇":401,"깈":402,"깉":403,"깊":404,"깋":405,"까":406,"깍":407,"깎":408,"깐":409,"깓":410,"깔":411,"깕":412,"깜":413,"깝":414,"깞":415,"깟":416,"깠":417,"깡":418,"깢":419,"깤":420,"깥":421,"깦":422,"깧":423,"깨":424,"깩":425,"깬":426,"깰":427,"깸":428,"깹":429,"깻":430,"깼":431,"깽":432,"꺀":433,"꺄":434,"꺅":435,"꺆":436,"꺊":437,"꺌":438,"꺔":439,"꺕":440,"꺙":441,"꺜":442,"꺠":443,"꺵":444,"꺼":445,"꺽":446,"꺾":447,"껀":448,"껃":449,"껄":450,"껌":451,"껍":452,"껏":453,"껐":454,"껑":455,"껒":456,"껔":457,"껕":458,"껗":459,"께":460,"껙":461,"껜":462,"껠":463,"껨":464,"껫":465,"껬":466,"껭":467,"껰":468,"껴":469,"껵":470,"껶":471,"껸":472,"껼":473,"꼅":474,"꼇":475,"꼈":476,"꼉":477,"꼐":478,"꼤":479,"꼬":480,"꼭":481,"꼮":482,"꼰":483,"꼳":484,"꼴":485,"꼹":486,"꼻":487,"꼼":488,"꼽":489,"꼿":490,"꽁":491,"꽂":492,"꽃":493,"꽄":494,"꽅":495,"꽇":496,"꽈":497,"꽉":498,"꽊":499,"꽌":500,"꽐":501,"꽝":502,"꽤":503,"꽥":504,"꽦":505,"꽹":506,"꾀":507,"꾁":508,"꾐":509,"꾕":510,"꾜":511,"꾤":512,"꾸":513,"꾹":514,"꾺":515,"꾼":516,"꾾":517,"꾿":518,"꿀":519,"꿁":520,"꿂":521,"꿃":522,"꿇":523,"꿈":524,"꿉":525,"꿋":526,"꿍":527,"꿎":528,"꿏":529,"꿐":530,"꿑":531,"꿔":532,"꿕":533,"꿘":534,"꿜":535,"꿥":536,"꿧":537,"꿨":538,"꿩":539,"꿰":540,"꿱":541,"꿴":542,"뀌":543,"뀐":544,"뀔":545,"뀜":546,"뀝":547,"뀟":548,"뀠":549,"뀡":550,"뀨":551,"뀩":552,"뀬":553,"뀰":554,"끄":555,"끅":556,"끈":557,"끊":558,"끋":559,"끌":560,"끍":561,"끓":562,"끔":563,"끕":564,"끗":565,"끘":566,"끙":567,"끚":568,"끛":569,"끜":570,"끝":571,"끟":572,"끠":573,"끤":574,"끨":575,"끼":576,"끽":577,"끾":578,"낀":579,"낂":580,"낃":581,"낄":582,"낌":583,"낍":584,"낏":585,"낑":586,"낒":587,"낔":588,"낕":589,"낗":590,"나":591,"낙":592,"낚":593,"낛":594,"난":595,"낝":596,"낞":597,"낟":598,"날":599,"낡":600,"낧":601,"남":602,"납":603,"낫":604,"났":605,"낭":606,"낮":607,"낯":608,"낰":609,"낱":610,"낲":611,"낳":612,"내":613,"낵":614,"낸":615,"낼":616,"냄":617,"냅":618,"냇":619,"냈":620,"냉":621,"냊":622,"냌":623,"냏":624,"냐":625,"냑":626,"냔":627,"냘":628,"냠":629,"냡":630,"냣":631,"냤":632,"냥":633,"냦":634,"냨":635,"냫":636,"냬":637,"냰":638,"냼":639,"너":640,"넉":641,"넊":642,"넋":643,"넌":644,"넎":645,"넏":646,"널":647,"넑":648,"넒":649,"넓":650,"넔":651,"넖":652,"넗":653,"넘":654,"넙":655,"넚":656,"넛":657,"넜":658,"넝":659,"넞":660,"넠":661,"넢":662,"넣":663,"네":664,"넥":665,"넨":666,"넫":667,"넬":668,"넴":669,"넵":670,"넷":671,"넸":672,"넹":673,"넺":674,"넼":675,"넽":676,"넿":677,"녀":678,"녁":679,"녂":680,"년":681,"녅":682,"녆":683,"녇":684,"녈":685,"념":686,"녑":687,"녓":688,"녔":689,"녕":690,"녘":691,"녛":692,"녜":693,"녠":694,"녤":695,"녴":696,"노":697,"녹":698,"논":699,"녾":700,"녿":701,"놀":702,"놁":703,"놂":704,"놈":705,"놉":706,"놊":707,"놋":708,"놌":709,"농":710,"놎":711,"놏":712,"놐":713,"놑":714,"높":715,"놓":716,"놔":717,"놕":718,"놘":719,"놜":720,"놤":721,"놥":722,"놧":723,"놨":724,"놬":725,"놯":726,"놰":727,"뇀":728,"뇁":729,"뇌":730,"뇐":731,"뇜":732,"뇝":733,"뇟":734,"뇠":735,"뇨":736,"뇩":737,"뇬":738,"뇯":739,"뇰":740,"뇸":741,"뇻":742,"뇽":743,"눃":744,"누":745,"눅":746,"눈":747,"눌":748,"눍":749,"눔":750,"눕":751,"눗":752,"눙":753,"눚":754,"눜":755,"눞":756,"눟":757,"눠":758,"눤":759,"눨":760,"눰":761,"눳":762,"눴":763,"눼":764,"뉍":765,"뉘":766,"뉜":767,"뉠":768,"뉨":769,"뉩":770,"뉭":771,"뉴":772,"뉸":773,"뉼":774,"늄":775,"늇":776,"늉":777,"느":778,"늑":779,"는":780,"늕":781,"늗":782,"늘":783,"늙":784,"늚":785,"늟":786,"늠":787,"늡":788,"늣":789,"능":790,"늦":791,"늧":792,"늨":793,"늩":794,"늪":795,"늫":796,"늬":797,"늰":798,"늴":799,"늼":800,"닁":801,"니":802,"닉":803,"닊":804,"닌":805,"닏":806,"닐":807,"님":808,"닙":809,"닚":810,"닛":811,"닜":812,"닝":813,"닞":814,"닟":815,"닠":816,"닡":817,"닢":818,"닣":819,"다":820,"닥":821,"닦":822,"단":823,"닩":824,"닪":825,"닫":826,"달":827,"닭":828,"닮":829,"닯":830,"닰":831,"닲":832,"닳":833,"담":834,"답":835,"닶":836,"닷":837,"닸":838,"당":839,"닺":840,"닻":841,"닼":842,"닽":843,"닾":844,"닿":845,"대":846,"댁":847,"댂":848,"댄":849,"댇":850,"댈":851,"댐":852,"댑":853,"댓":854,"댔":855,"댕":856,"댖":857,"댗":858,"댘":859,"댙":860,"댚":861,"댛":862,"댜":863,"댝":864,"댠":865,"댤":866,"댬":867,"댭":868,"댯":869,"댱":870,"댸":871,"덋":872,"덍":873,"더":874,"덕":875,"던":876,"덙":877,"덛":878,"덜":879,"덝":880,"덞":881,"덟":882,"덤":883,"덥":884,"덧":885,"덨":886,"덩":887,"덪":888,"덫":889,"덬":890,"덭":891,"덮":892,"덯":893,"데":894,"덱":895,"덴":896,"덷":897,"델":898,"뎀":899,"뎁":900,"뎃":901,"뎄":902,"뎅":903,"뎆":904,"뎇":905,"뎈":906,"뎊":907,"뎋":908,"뎌":909,"뎍":910,"뎐":911,"뎔":912,"뎜":913,"뎝":914,"뎟":915,"뎠":916,"뎡":917,"뎨":918,"뎽":919,"도":920,"독":921,"돈":922,"돉":923,"돋":924,"돌":925,"돐":926,"돔":927,"돕":928,"돗":929,"동":930,"돚":931,"돛":932,"돜":933,"돝":934,"돞":935,"돟":936,"돠":937,"돡":938,"돤":939,"돨":940,"돰":941,"돱":942,"돳":943,"돴":944,"돵":945,"돼":946,"됀":947,"됄":948,"됌":949,"됍":950,"됏":951,"됐":952,"됑":953,"됒":954,"됔":955,"됗":956,"되":957,"됙":958,"된":959,"됟":960,"될":961,"됨":962,"됩":963,"됫":964,"됬":965,"됭":966,"됮":967,"됰":968,"됳":969,"됴":970,"됵":971,"됸":972,"됻":973,"됼":974,"둇":975,"둉":976,"둊":977,"둋":978,"두":979,"둑":980,"둔":981,"둗":982,"둘":983,"둟":984,"둠":985,"둡":986,"둣":987,"둥":988,"둬":989,"둰":990,"둴":991,"둿":992,"뒀":993,"뒁":994,"뒈":995,"뒙":996,"뒛":997,"뒝":998,"뒞":999,"뒤":1000,"뒥":1001,"뒨":1002,"뒬":1003,"뒵":1004,"뒷":1005,"뒸":1006,"뒹":1007,"뒺":1008,"듀":1009,"듁":1010,"듄":1011,"듈":1012,"듐":1013,"듕":1014,"드":1015,"득":1016,"든":1017,"듡":1018,"듣":1019,"들":1020,"듥":1021,"듦":1022,"듧":1023,"듨":1024,"듩":1025,"듪":1026,"듫":1027,"듬":1028,"듭":1029,"듯":1030,"등":1031,"듲":1032,"듳":1033,"듴":1034,"듵":1035,"듷":1036,"듸":1037,"듹":1038,"듼":1039,"딀":1040,"딋":1041,"딍":1042,"디":1043,"딕":1044,"딘":1045,"딛":1046,"딜":1047,"딝":1048,"딞":1049,"딤":1050,"딥":1051,"딧":1052,"딨":1053,"딩":1054,"딪":1055,"딫":1056,"딬":1057,"딮":1058,"딯":1059,"따":1060,"딱":1061,"딲":1062,"딴":1063,"딷":1064,"딸":1065,"딹":1066,"땀":1067,"땁":1068,"땃":1069,"땄":1070,"땅":1071,"땈":1072,"땋":1073,"때":1074,"땍":1075,"땐":1076,"땔":1077,"땜":1078,"땝":1079,"땟":1080,"땠":1081,"땡":1082,"땤":1083,"땧":1084,"땨":1085,"땩":1086,"땬":1087,"땰":1088,"땸":1089,"땽":1090,"떄":1091,"떈":1092,"떔":1093,"떙":1094,"떠":1095,"떡":1096,"떢":1097,"떤":1098,"떦":1099,"떧":1100,"떨":1101,"떪":1102,"떫":1103,"떯":1104,"떰":1105,"떱":1106,"떳":1107,"떴":1108,"떵":1109,"떻":1110,"떼":1111,"떽":1112,"뗀":1113,"뗄":1114,"뗌":1115,"뗍":1116,"뗏":1117,"뗐":1118,"뗑":1119,"뗔":1120,"뗗":1121,"뗘":1122,"뗙":1123,"뗜":1124,"뗠":1125,"뗬":1126,"뗭":1127,"뗳":1128,"뗴":1129,"또":1130,"똑":1131,"똒":1132,"똔":1133,"똗":1134,"똘":1135,"똟":1136,"똠":1137,"똡":1138,"똣":1139,"똥":1140,"똨":1141,"똫":1142,"똬":1143,"똭":1144,"똴":1145,"뙇":1146,"뙈":1147,"뙌":1148,"뙛":1149,"뙜":1150,"뙤":1151,"뙥":1152,"뙨":1153,"뙷":1154,"뚀":1155,"뚁":1156,"뚕":1157,"뚜":1158,"뚝":1159,"뚠":1160,"뚣":1161,"뚤":1162,"뚥":1163,"뚫":1164,"뚬":1165,"뚯":1166,"뚱":1167,"뚷":1168,"뚸":1169,"뛍":1170,"뛔":1171,"뛧":1172,"뛰":1173,"뛴":1174,"뛸":1175,"뜀":1176,"뜁":1177,"뜅":1178,"뜌":1179,"뜡":1180,"뜨":1181,"뜩":1182,"뜬":1183,"뜯":1184,"뜰":1185,"뜱":1186,"뜷":1187,"뜸":1188,"뜹":1189,"뜻":1190,"뜼":1191,"뜽":1192,"뜾":1193,"뜿":1194,"띁":1195,"띃":1196,"띄":1197,"띈":1198,"띌":1199,"띔":1200,"띟":1201,"띠":1202,"띡":1203,"띤":1204,"띨":1205,"띰":1206,"띱":1207,"띳":1208,"띵":1209,"띻":1210,"라":1211,"락":1212,"띾":1213,"란":1214,"랂":1215,"랃":1216,"랄":1217,"랅":1218,"랋":1219,"람":1220,"랍":1221,"랏":1222,"랐":1223,"랑":1224,"랒":1225,"랓":1226,"랔":1227,"랕":1228,"랖":1229,"랗":1230,"래":1231,"랙":1232,"랜":1233,"랟":1234,"랠":1235,"램":1236,"랩":1237,"랫":1238,"랬":1239,"랭":1240,"랮":1241,"랰":1242,"랲":1243,"랳":1244,"랴":1245,"략":1246,"랸":1247,"랼":1248,"럄":1249,"럅":1250,"럇":1251,"럈":1252,"량":1253,"럐":1254,"럤":1255,"러":1256,"럭":1257,"런":1258,"럱":1259,"럲":1260,"럳":1261,"럴":1262,"럻":1263,"럼":1264,"럽":1265,"럾":1266,"럿":1267,"렀":1268,"렁":1269,"렂":1270,"렄":1271,"렆":1272,"렇":1273,"레":1274,"렉":1275,"렌":1276,"렏":1277,"렐":1278,"렘":1279,"렙":1280,"렛":1281,"렜":1282,"렝":1283,"렠":1284,"렣":1285,"려":1286,"력":1287,"련":1288,"렪":1289,"렫":1290,"렬":1291,"렴":1292,"렵":1293,"렷":1294,"렸":1295,"령":1296,"렺":1297,"렼":1298,"렿":1299,"례":1300,"롁":1301,"롄":1302,"롈":1303,"롐":1304,"롓":1305,"롔":1306,"롕":1307,"로":1308,"록":1309,"론":1310,"롣":1311,"롤":1312,"롬":1313,"롭":1314,"롯":1315,"롱":1316,"롲":1317,"롳":1318,"롴":1319,"롶":1320,"롷":1321,"롸":1322,"롹":1323,"롼":1324,"뢀":1325,"뢈":1326,"뢉":1327,"뢋":1328,"뢌":1329,"뢍":1330,"뢐":1331,"뢔":1332,"뢰":1333,"뢱":1334,"뢴":1335,"뢸":1336,"룁":1337,"료":1338,"룍":1339,"룐":1340,"룔":1341,"룜":1342,"룝":1343,"룟":1344,"룡":1345,"루":1346,"룩":1347,"룬":1348,"룰":1349,"룸":1350,"룹":1351,"룻":1352,"룽":1353,"뤀":1354,"뤂":1355,"뤄":1356,"뤈":1357,"뤌":1358,"뤔":1359,"뤗":1360,"뤘":1361,"뤠":1362,"뤡":1363,"뤼":1364,"륀":1365,"륄":1366,"륍":1367,"류":1368,"륙":1369,"륜":1370,"률":1371,"륨":1372,"륩":1373,"륭":1374,"르":1375,"륵":1376,"른":1377,"륻":1378,"를":1379,"륾":1380,"륿":1381,"릂":1382,"릃":1383,"름":1384,"릅":1385,"릇":1386,"릉":1387,"릊":1388,"릌":1389,"릍":1390,"릎":1391,"릏":1392,"릐":1393,"릔":1394,"릠":1395,"릫":1396,"리":1397,"릭":1398,"린":1399,"릳":1400,"릴":1401,"림":1402,"립":1403,"릿":1404,"맀":1405,"링":1406,"맂":1407,"맃":1408,"맄":1409,"맆":1410,"맇":1411,"마":1412,"막":1413,"맊":1414,"만":1415,"맍":1416,"많":1417,"맏":1418,"말":1419,"맑":1420,"맒":1421,"맔":1422,"맗":1423,"맘":1424,"맙":1425,"맛":1426,"맜":1427,"망":1428,"맞":1429,"맟":1430,"맠":1431,"맡":1432,"맢":1433,"맣":1434,"매":1435,"맥":1436,"맨":1437,"맫":1438,"맬":1439,"맴":1440,"맵":1441,"맷":1442,"맸":1443,"맹":1444,"맺":1445,"맻":1446,"맼":1447,"맽":1448,"먀":1449,"먁":1450,"먄":1451,"먆":1452,"먈":1453,"먕":1454,"먖":1455,"먗":1456,"먛":1457,"먜":1458,"먠":1459,"먱":1460,"머":1461,"먹":1462,"먺":1463,"먼":1464,"먽":1465,"먾":1466,"먿":1467,"멀":1468,"멈":1469,"멉":1470,"멊":1471,"멋":1472,"멌":1473,"멍":1474,"멎":1475,"멏":1476,"멐":1477,"멓":1478,"메":1479,"멕":1480,"멘":1481,"멜":1482,"멤":1483,"멥":1484,"멧":1485,"멨":1486,"멩":1487,"멫":1488,"며":1489,"멱":1490,"면":1491,"멵":1492,"멷":1493,"멸":1494,"몀":1495,"몁":1496,"몃":1497,"몄":1498,"명":1499,"몆":1500,"몇":1501,"몈":1502,"몉":1503,"몊":1504,"몋":1505,"몌":1506,"몐":1507,"몡":1508,"몣":1509,"모":1510,"목":1511,"몪":1512,"몫":1513,"몬":1514,"몯":1515,"몰":1516,"몱":1517,"몴":1518,"몸":1519,"몹":1520,"못":1521,"몼":1522,"몽":1523,"몾":1524,"몿":1525,"뫀":1526,"뫁":1527,"뫃":1528,"뫄":1529,"뫈":1530,"뫌":1531,"뫕":1532,"뫘":1533,"뫙":1534,"뫠":1535,"뫼":1536,"뫽":1537,"묀":1538,"묏":1539,"묘":1540,"묙":1541,"묜":1542,"묠":1543,"묫":1544,"묭":1545,"무":1546,"묵":1547,"묶":1548,"묷":1549,"문":1550,"묹":1551,"묻":1552,"물":1553,"묽":1554,"묾":1555,"뭄":1556,"뭅":1557,"뭇":1558,"뭈":1559,"뭉":1560,"뭊":1561,"뭌":1562,"뭍":1563,"뭏":1564,"뭐":1565,"뭑":1566,"뭔":1567,"뭘":1568,"뭠":1569,"뭡":1570,"뭣":1571,"뭤":1572,"뭥":1573,"뭨":1574,"뭫":1575,"뭬":1576,"뭰":1577,"뮈":1578,"뮌":1579,"뮐":1580,"뮙":1581,"뮛":1582,"뮜":1583,"뮝":1584,"뮤":1585,"뮥":1586,"뮨":1587,"뮬":1588,"뮴":1589,"뮷":1590,"뮹":1591,"므":1592,"믁":1593,"믄":1594,"믇":1595,"믈":1596,"믐":1597,"믓":1598,"믕":1599,"믜":1600,"믠":1601,"미":1602,"믹":1603,"민":1604,"믽":1605,"믾":1606,"믿":1607,"밀":1608,"밇":1609,"밈":1610,"밉":1611,"밋":1612,"밌":1613,"밍":1614,"밎":1615,"및":1616,"밐":1617,"밑":1618,"밓":1619,"바":1620,"박":1621,"밖":1622,"밗":1623,"반":1624,"밙":1625,"밚":1626,"받":1627,"발":1628,"밝":1629,"밞":1630,"밟":1631,"밠":1632,"밢":1633,"밣":1634,"밤":1635,"밥":1636,"밦":1637,"밧":1638,"밨":1639,"방":1640,"밪":1641,"밫":1642,"밬":1643,"밭":1644,"밮":1645,"밯":1646,"배":1647,"백":1648,"밴":1649,"밷":1650,"밸":1651,"뱀":1652,"뱁":1653,"뱃":1654,"뱄":1655,"뱅":1656,"뱆":1657,"뱈":1658,"뱉":1659,"뱌":1660,"뱍":1661,"뱐":1662,"뱓":1663,"뱔":1664,"뱜":1665,"뱝":1666,"뱡":1667,"뱨":1668,"뱩":1669,"뱰":1670,"뱸":1671,"뱽":1672,"버":1673,"벅":1674,"벆":1675,"번":1676,"벋":1677,"벌":1678,"벍":1679,"벎":1680,"벏":1681,"벓":1682,"범":1683,"법":1684,"벖":1685,"벗":1686,"벘":1687,"벙":1688,"벚":1689,"벛":1690,"벜":1691,"벝":1692,"벞":1693,"벟":1694,"베":1695,"벡":1696,"벤":1697,"벧":1698,"벨":1699,"벰":1700,"벱":1701,"벳":1702,"벴":1703,"벵":1704,"벸":1705,"벹":1706,"벼":1707,"벽":1708,"변":1709,"볂":1710,"볃":1711,"별":1712,"볌":1713,"볍":1714,"볎":1715,"볏":1716,"볐":1717,"병":1718,"볒":1719,"볓":1720,"볔":1721,"볕":1722,"볖":1723,"볗":1724,"볘":1725,"볜":1726,"볠":1727,"볭":1728,"보":1729,"복":1730,"볶":1731,"본":1732,"볹":1733,"볻":1734,"볼":1735,"볽":1736,"볾":1737,"봄":1738,"봅":1739,"봇":1740,"봉":1741,"봊":1742,"봌":1743,"봍":1744,"봏":1745,"봐":1746,"봑":1747,"봔":1748,"봗":1749,"봘":1750,"봙":1751,"봟":1752,"봡":1753,"봣":1754,"봤":1755,"봥":1756,"봦":1757,"봨":1758,"봫":1759,"봬":1760,"뵀":1761,"뵁":1762,"뵈":1763,"뵌":1764,"뵐":1765,"뵘":1766,"뵙":1767,"뵜":1768,"뵝":1769,"뵤":1770,"뵥":1771,"뵨":1772,"뵬":1773,"뵵":1774,"뵹":1775,"부":1776,"북":1777,"붂":1778,"붃":1779,"분":1780,"붅":1781,"붇":1782,"불":1783,"붉":1784,"붊":1785,"붋":1786,"붌":1787,"붍":1788,"붏":1789,"붐":1790,"붑":1791,"붓":1792,"붔":1793,"붕":1794,"붖":1795,"붗":1796,"붘":1797,"붙":1798,"붚":1799,"붛":1800,"붜":1801,"붠":1802,"붤":1803,"붱":1804,"붸":1805,"붹":1806,"뷀":1807,"뷁":1808,"뷍":1809,"뷔":1810,"뷘":1811,"뷜":1812,"뷩":1813,"뷰":1814,"뷱":1815,"뷴":1816,"뷸":1817,"븀":1818,"븁":1819,"븃":1820,"븅":1821,"븉":1822,"브":1823,"븍":1824,"븐":1825,"블":1826,"븜":1827,"븝":1828,"븟":1829,"븡":1830,"븥":1831,"븨":1832,"븩":1833,"븬":1834,"븰":1835,"븹":1836,"븽":1837,"비":1838,"빅":1839,"빆":1840,"빈":1841,"빋":1842,"빌":1843,"빍":1844,"빏":1845,"빔":1846,"빕":1847,"빗":1848,"빘":1849,"빙":1850,"빚":1851,"빛":1852,"빜":1853,"빝":1854,"빟":1855,"빠":1856,"빡":1857,"빢":1858,"빤":1859,"빧":1860,"빨":1861,"빩":1862,"빫":1863,"빬":1864,"빯":1865,"빰":1866,"빱":1867,"빳":1868,"빴":1869,"빵":1870,"빶":1871,"빸":1872,"빹":1873,"빻":1874,"빼":1875,"빽":1876,"뺀":1877,"뺃":1878,"뺄":1879,"뺌":1880,"뺍":1881,"뺏":1882,"뺐":1883,"뺑":1884,"뺒":1885,"뺕":1886,"뺘":1887,"뺙":1888,"뺜":1889,"뺠":1890,"뺨":1891,"뺫":1892,"뺭":1893,"뺴":1894,"뺵":1895,"뺸":1896,"뺼":1897,"뻄":1898,"뻇":1899,"뻈":1900,"뻉":1901,"뻐":1902,"뻑":1903,"뻔":1904,"뻗":1905,"뻘":1906,"뻙":1907,"뻠":1908,"뻡":1909,"뻣":1910,"뻤":1911,"뻥":1912,"뻩":1913,"뻬":1914,"뻭":1915,"뻰":1916,"뻴":1917,"뻿":1918,"뼁":1919,"뼈":1920,"뼉":1921,"뼌":1922,"뼐":1923,"뼘":1924,"뼛":1925,"뼜":1926,"뼝":1927,"뼤":1928,"뽀":1929,"뽁":1930,"뽂":1931,"뽄":1932,"뽈":1933,"뽐":1934,"뽑":1935,"뽓":1936,"뽕":1937,"뽖":1938,"뽚":1939,"뽜":1940,"뽝":1941,"뽠":1942,"뽤":1943,"뽱":1944,"뾀":1945,"뾰":1946,"뾱":1947,"뿅":1948,"뿌":1949,"뿍":1950,"뿐":1951,"뿔":1952,"뿕":1953,"뿜":1954,"뿝":1955,"뿟":1956,"뿠":1957,"뿡":1958,"쀄":1959,"쀅":1960,"쀍":1961,"쀼":1962,"쁀":1963,"쁄":1964,"쁑":1965,"쁘":1966,"쁙":1967,"쁜":1968,"쁠":1969,"쁨":1970,"쁩":1971,"쁫":1972,"쁭":1973,"쁸":1974,"삐":1975,"삑":1976,"삔":1977,"삘":1978,"삣":1979,"삤":1980,"삥":1981,"사":1982,"삭":1983,"삮":1984,"삯":1985,"산":1986,"삱":1987,"삲":1988,"삳":1989,"살":1990,"삵":1991,"삶":1992,"삷":1993,"삸":1994,"삺":1995,"삻":1996,"삼":1997,"삽":1998,"삾":1999,"삿":2000,"샀":2001,"상":2002,"샂":2003,"샄":2004,"샅":2005,"샆":2006,"샇":2007,"새":2008,"색":2009,"샊":2010,"샋":2011,"샌":2012,"샎":2013,"샏":2014,"샐":2015,"샑":2016,"샕":2017,"샗":2018,"샘":2019,"샙":2020,"샛":2021,"샜":2022,"생":2023,"샞":2024,"샟":2025,"샠":2026,"샡":2027,"샣":2028,"샤":2029,"샥":2030,"샨":2031,"샬":2032,"샴":2033,"샵":2034,"샷":2035,"샸":2036,"샹":2037,"샼":2038,"샾":2039,"섀":2040,"섁":2041,"섂":2042,"섄":2043,"섓":2044,"섕":2045,"섘":2046,"서":2047,"석":2048,"섞":2049,"선":2050,"섡":2051,"섣":2052,"설":2053,"섥":2054,"섦":2055,"섫":2056,"섬":2057,"섭":2058,"섮":2059,"섯":2060,"섰":2061,"성":2062,"섲":2063,"섳":2064,"섴":2065,"섵":2066,"섶":2067,"섷":2068,"세":2069,"섹":2070,"섺":2071,"섻":2072,"센":2073,"섿":2074,"셀":2075,"셁":2076,"셈":2077,"셉":2078,"셋":2079,"셌":2080,"셍":2081,"셎":2082,"셐":2083,"셑":2084,"셒":2085,"셓":2086,"셔":2087,"셕":2088,"션":2089,"셜":2090,"셤":2091,"셥":2092,"셧":2093,"셨":2094,"셩":2095,"셬":2096,"셯":2097,"셰":2098,"셱":2099,"셲":2100,"셴":2101,"셸":2102,"솃":2103,"솄":2104,"솅":2105,"솈":2106,"소":2107,"속":2108,"솎":2109,"솏":2110,"손":2111,"솓":2112,"솔":2113,"솜":2114,"솝":2115,"솟":2116,"송":2117,"솢":2118,"솤":2119,"솥":2120,"솦":2121,"솧":2122,"솨":2123,"솩":2124,"솬":2125,"솰":2126,"솹":2127,"솻":2128,"솼":2129,"솽":2130,"쇄":2131,"쇅":2132,"쇆":2133,"쇗":2134,"쇙":2135,"쇜":2136,"쇟":2137,"쇠":2138,"쇡":2139,"쇣":2140,"쇤":2141,"쇳":2142,"쇵":2143,"쇼":2144,"쇽":2145,"숀":2146,"숄":2147,"숍":2148,"숏":2149,"숑":2150,"숔":2151,"숖":2152,"수":2153,"숙":2154,"순":2155,"숟":2156,"술":2157,"숨":2158,"숩":2159,"숫":2160,"숭":2161,"숮":2162,"숯":2163,"숰":2164,"숱":2165,"숲":2166,"숳":2167,"숴":2168,"숵":2169,"숸":2170,"숼":2171,"쉄":2172,"쉅":2173,"쉇":2174,"쉈":2175,"쉉":2176,"쉌":2177,"쉐":2178,"쉑":2179,"쉒":2180,"쉓":2181,"쉔":2182,"쉘":2183,"쉙":2184,"쉡":2185,"쉣":2186,"쉤":2187,"쉥":2188,"쉨":2189,"쉫":2190,"쉬":2191,"쉭":2192,"쉰":2193,"쉴":2194,"쉼":2195,"쉽":2196,"쉾":2197,"쉿":2198,"슁":2199,"슄":2200,"슆":2201,"슈":2202,"슉":2203,"슌":2204,"슐":2205,"슘":2206,"슙":2207,"슛":2208,"슝":2209,"스":2210,"슥":2211,"슨":2212,"슫":2213,"슬":2214,"슭":2215,"슴":2216,"습":2217,"슷":2218,"승":2219,"슺":2220,"슼":2221,"슽":2222,"슾":2223,"슿":2224,"싀":2225,"싁":2226,"싄":2227,"싈":2228,"싐":2229,"싑":2230,"싓":2231,"싕":2232,"시":2233,"식":2234,"싞":2235,"싟":2236,"신":2237,"싡":2238,"싢":2239,"싣":2240,"실":2241,"싥":2242,"싦":2243,"싧":2244,"싨":2245,"싪":2246,"싫":2247,"심":2248,"십":2249,"싮":2250,"싯":2251,"싰":2252,"싱":2253,"싲":2254,"싳":2255,"싴":2256,"싵":2257,"싶":2258,"싷":2259,"싸":2260,"싹":2261,"싺":2262,"싻":2263,"싼":2264,"싾":2265,"싿":2266,"쌀":2267,"쌂":2268,"쌈":2269,"쌉":2270,"쌋":2271,"쌌":2272,"쌍":2273,"쌑":2274,"쌓":2275,"쌔":2276,"쌕":2277,"쌖":2278,"쌘":2279,"쌜":2280,"쌤":2281,"쌥":2282,"쌧":2283,"쌨":2284,"쌩":2285,"쌬":2286,"쌰":2287,"쌱":2288,"쌴":2289,"쌸":2290,"썀":2291,"썁":2292,"썅":2293,"썌":2294,"썍":2295,"썎":2296,"썡":2297,"써":2298,"썩":2299,"썪":2300,"썬":2301,"썯":2302,"썰":2303,"썸":2304,"썹":2305,"썻":2306,"썼":2307,"썽":2308,"쎀":2309,"쎃":2310,"쎄":2311,"쎅":2312,"쎆":2313,"쎈":2314,"쎌":2315,"쎔":2316,"쎕":2317,"쎗":2318,"쎘":2319,"쎙":2320,"쎜":2321,"쎟":2322,"쎠":2323,"쎡":2324,"쎤":2325,"쎳":2326,"쎴":2327,"쎵":2328,"쎼":2329,"쎽":2330,"쎾":2331,"쏀":2332,"쏘":2333,"쏙":2334,"쏚":2335,"쏜":2336,"쏟":2337,"쏠":2338,"쏨":2339,"쏩":2340,"쏫":2341,"쏭":2342,"쏱":2343,"쏳":2344,"쏴":2345,"쏵":2346,"쏸":2347,"쏼":2348,"쐇":2349,"쐈":2350,"쐉":2351,"쐐":2352,"쐑":2353,"쐒":2354,"쐨":2355,"쐬":2356,"쐭":2357,"쐰":2358,"쐴":2359,"쐽":2360,"쑈":2361,"쑌":2362,"쑝":2363,"쑤":2364,"쑥":2365,"쑨":2366,"쑬":2367,"쑴":2368,"쑵":2369,"쑹":2370,"쒀":2371,"쒑":2372,"쒔":2373,"쒜":2374,"쒝":2375,"쒞":2376,"쒭":2377,"쒯":2378,"쒰":2379,"쒴":2380,"쒸":2381,"쒹":2382,"쒼":2383,"쓀":2384,"쓈":2385,"쓉":2386,"쓋":2387,"쓒":2388,"쓔":2389,"쓤":2390,"쓥":2391,"쓩":2392,"쓰":2393,"쓱":2394,"쓴":2395,"쓸":2396,"씀":2397,"씁":2398,"씃":2399,"씅":2400,"씈":2401,"씉":2402,"씊":2403,"씋":2404,"씌":2405,"씍":2406,"씐":2407,"씝":2408,"씞":2409,"씦":2410,"씨":2411,"씩":2412,"씪":2413,"씬":2414,"씮":2415,"씯":2416,"씰":2417,"씳":2418,"씷":2419,"씸":2420,"씹":2421,"씺":2422,"씻":2423,"씼":2424,"씽":2425,"씾":2426,"앀":2427,"앁":2428,"앂":2429,"앃":2430,"아":2431,"악":2432,"앆":2433,"안":2434,"앉":2435,"않":2436,"앋":2437,"알":2438,"앍":2439,"앎":2440,"앏":2441,"앐":2442,"앓":2443,"암":2444,"압":2445,"앖":2446,"앗":2447,"았":2448,"앙":2449,"앚":2450,"앛":2451,"앜":2452,"앝":2453,"앞":2454,"앟":2455,"애":2456,"액":2457,"앢":2458,"앤":2459,"앧":2460,"앨":2461,"앰":2462,"앱":2463,"앲":2464,"앳":2465,"앴":2466,"앵":2467,"앸":2468,"앺":2469,"야":2470,"약":2471,"얀":2472,"얂":2473,"얃":2474,"얄":2475,"얇":2476,"얉":2477,"얊":2478,"얋":2479,"얌":2480,"얍":2481,"얏":2482,"얐":2483,"양":2484,"얒":2485,"얔":2486,"얕":2487,"얖":2488,"얗":2489,"얘":2490,"얙":2491,"얜":2492,"얠":2493,"얨":2494,"얫":2495,"얬":2496,"얭":2497,"어":2498,"억":2499,"얶":2500,"얷":2501,"언":2502,"얹":2503,"얺":2504,"얻":2505,"얼":2506,"얽":2507,"얾":2508,"얿":2509,"엃":2510,"엄":2511,"업":2512,"없":2513,"엇":2514,"었":2515,"엉":2516,"엊":2517,"엋":2518,"엌":2519,"엍":2520,"엎":2521,"엏":2522,"에":2523,"엑":2524,"엒":2525,"엔":2526,"엗":2527,"엘":2528,"엠":2529,"엡":2530,"엢":2531,"엣":2532,"엤":2533,"엥":2534,"엦":2535,"엧":2536,"엨":2537,"엪":2538,"엫":2539,"여":2540,"역":2541,"엮":2542,"엯":2543,"연":2544,"엳":2545,"열":2546,"엵":2547,"엷":2548,"염":2549,"엽":2550,"엾":2551,"엿":2552,"였":2553,"영":2554,"옂":2555,"옃":2556,"옄":2557,"옅":2558,"옆":2559,"옇":2560,"예":2561,"옉":2562,"옌":2563,"옐":2564,"옘":2565,"옙":2566,"옛":2567,"옜":2568,"옝":2569,"옠":2570,"오":2571,"옥":2572,"온":2573,"옪":2574,"옫":2575,"올":2576,"옭":2577,"옮":2578,"옯":2579,"옰":2580,"옳":2581,"옴":2582,"옵":2583,"옶":2584,"옷":2585,"옸":2586,"옹":2587,"옺":2588,"옻":2589,"옼":2590,"옽":2591,"옾":2592,"옿":2593,"와":2594,"왁":2595,"완":2596,"왈":2597,"왐":2598,"왑":2599,"왓":2600,"왔":2601,"왕":2602,"왖":2603,"왘":2604,"왚":2605,"왛":2606,"왜":2607,"왝":2608,"왠":2609,"왤":2610,"왯":2611,"왰":2612,"왱":2613,"왴":2614,"외":2615,"왹":2616,"왼":2617,"욀":2618,"욋":2619,"욌":2620,"욍":2621,"요":2622,"욕":2623,"욘":2624,"욛":2625,"욜":2626,"욤":2627,"욥":2628,"욧":2629,"욨":2630,"용":2631,"욪":2632,"욬":2633,"욮":2634,"욯":2635,"우":2636,"욱":2637,"욲":2638,"운":2639,"욵":2640,"욷":2641,"울":2642,"욹":2643,"욺":2644,"욿":2645,"움":2646,"웁":2647,"웂":2648,"웃":2649,"웄":2650,"웅":2651,"웆":2652,"웈":2653,"웉":2654,"웋":2655,"워":2656,"웍":2657,"원":2658,"웑":2659,"웒":2660,"웓":2661,"월":2662,"웗":2663,"웛":2664,"웜":2665,"웝":2666,"웟":2667,"웠":2668,"웡":2669,"웤":2670,"웧":2671,"웨":2672,"웩":2673,"웬":2674,"웰":2675,"웸":2676,"웹":2677,"웻":2678,"웽":2679,"윀":2680,"위":2681,"윅":2682,"윈":2683,"윌":2684,"윔":2685,"윕":2686,"윗":2687,"윘":2688,"윙":2689,"윜":2690,"유":2691,"육":2692,"윤":2693,"율":2694,"윰":2695,"윱":2696,"윳":2697,"융":2698,"윶":2699,"윷":2700,"윸":2701,"윻":2702,"으":2703,"윽":2704,"윾":2705,"은":2706,"읁":2707,"읂":2708,"읃":2709,"을":2710,"읅":2711,"읆":2712,"읇":2713,"읈":2714,"읉":2715,"읊":2716,"읋":2717,"음":2718,"읍":2719,"읎":2720,"읏":2721,"읐":2722,"응":2723,"읒":2724,"읓":2725,"읔":2726,"읕":2727,"읖":2728,"읗":2729,"의":2730,"읙":2731,"읜":2732,"읠":2733,"읨":2734,"읩":2735,"읪":2736,"읫":2737,"읭":2738,"읮":2739,"읰":2740,"이":2741,"익":2742,"읶":2743,"인":2744,"읹":2745,"읺":2746,"읻":2747,"일":2748,"읽":2749,"읾":2750,"읿":2751,"잀":2752,"잂":2753,"잃":2754,"임":2755,"입":2756,"잆":2757,"잇":2758,"있":2759,"잉":2760,"잊":2761,"잋":2762,"잌":2763,"잍":2764,"잎":2765,"잏":2766,"자":2767,"작":2768,"잒":2769,"잔":2770,"잕":2771,"잖":2772,"잗":2773,"잘":2774,"잙":2775,"잚":2776,"잛":2777,"잜":2778,"잟":2779,"잠":2780,"잡":2781,"잢":2782,"잣":2783,"잤":2784,"장":2785,"잦":2786,"잧":2787,"잨":2788,"잩":2789,"잪":2790,"잫":2791,"재":2792,"잭":2793,"잰":2794,"잴":2795,"잼":2796,"잽":2797,"잿":2798,"쟀":2799,"쟁":2800,"쟂":2801,"쟄":2802,"쟆":2803,"쟈":2804,"쟉":2805,"쟌":2806,"쟎":2807,"쟐":2808,"쟘":2809,"쟙":2810,"쟛":2811,"쟜":2812,"쟝":2813,"쟞":2814,"쟣":2815,"쟤":2816,"쟨":2817,"쟬":2818,"쟹":2819,"저":2820,"적":2821,"전":2822,"젅":2823,"젆":2824,"젇":2825,"절":2826,"젉":2827,"젊":2828,"젋":2829,"젎":2830,"젏":2831,"점":2832,"접":2833,"젓":2834,"젔":2835,"정":2836,"젖":2837,"젗":2838,"젘":2839,"젙":2840,"젚":2841,"젛":2842,"제":2843,"젝":2844,"젠":2845,"젣":2846,"젤":2847,"젬":2848,"젭":2849,"젯":2850,"젰":2851,"젱":2852,"젲":2853,"젴":2854,"져":2855,"젹":2856,"젺":2857,"젼":2858,"젿":2859,"졀":2860,"졈":2861,"졉":2862,"졋":2863,"졌":2864,"졍":2865,"졎":2866,"졏":2867,"졐":2868,"졑":2869,"졓":2870,"졔":2871,"졘":2872,"졨":2873,"조":2874,"족":2875,"졲":2876,"졳":2877,"존":2878,"졵":2879,"졶":2880,"졷":2881,"졸":2882,"졻":2883,"좀":2884,"좁":2885,"좂":2886,"좃":2887,"좄":2888,"종":2889,"좆":2890,"좇":2891,"좈":2892,"좉":2893,"좊":2894,"좋":2895,"좌":2896,"좍":2897,"좐":2898,"좔":2899,"좜":2900,"좝":2901,"좟":2902,"좠":2903,"좡":2904,"좢":2905,"좦":2906,"좨":2907,"좬":2908,"좸":2909,"좽":2910,"죄":2911,"죅":2912,"죈":2913,"죌":2914,"죔":2915,"죕":2916,"죗":2917,"죙":2918,"죚":2919,"죠":2920,"죡":2921,"죤":2922,"죧":2923,"죨":2924,"죰":2925,"죱":2926,"죳":2927,"죴":2928,"죵":2929,"죷":2930,"죸":2931,"죹":2932,"죻":2933,"주":2934,"죽":2935,"준":2936,"줃":2937,"줄":2938,"줌":2939,"줍":2940,"줏":2941,"줐":2942,"중":2943,"줒":2944,"줓":2945,"줔":2946,"줕":2947,"줗":2948,"줘":2949,"줙":2950,"줜":2951,"줟":2952,"줠":2953,"줩":2954,"줫":2955,"줬":2956,"줭":2957,"줮":2958,"줯":2959,"줰":2960,"줱":2961,"줳":2962,"줴":2963,"줸":2964,"줼":2965,"쥐":2966,"쥑":2967,"쥔":2968,"쥘":2969,"쥠":2970,"쥡":2971,"쥣":2972,"쥤":2973,"쥥":2974,"쥬":2975,"쥭":2976,"쥰":2977,"쥴":2978,"쥼":2979,"쥽":2980,"쥿":2981,"즁":2982,"즂":2983,"즈":2984,"즉":2985,"즌":2986,"즐":2987,"즘":2988,"즙":2989,"즛":2990,"증":2991,"즞":2992,"즣":2993,"즤":2994,"즥":2995,"즨":2996,"즬":2997,"즴":2998,"즵":2999,"즹":3000,"지":3001,"직":3002,"짂":3003,"진":3004,"짅":3005,"짆":3006,"짇":3007,"질":3008,"짉":3009,"짊":3010,"짋":3011,"짌":3012,"짏":3013,"짐":3014,"집":3015,"짒":3016,"짓":3017,"짔":3018,"징":3019,"짖":3020,"짗":3021,"짘":3022,"짙":3023,"짚":3024,"짛":3025,"짜":3026,"짝":3027,"짞":3028,"짠":3029,"짢":3030,"짤":3031,"짥":3032,"짦":3033,"짧":3034,"짪":3035,"짫":3036,"짬":3037,"짭":3038,"짮":3039,"짯":3040,"짰":3041,"짱":3042,"짲":3043,"짳":3044,"짴":3045,"째":3046,"짹":3047,"짼":3048,"쨀":3049,"쨈":3050,"쨉":3051,"쨋":3052,"쨌":3053,"쨍":3054,"쨎":3055,"쨓":3056,"쨔":3057,"쨕":3058,"쨘":3059,"쨜":3060,"쨥":3061,"쨩":3062,"쨰":3063,"쩃":3064,"쩄":3065,"쩌":3066,"쩍":3067,"쩐":3068,"쩔":3069,"쩖":3070,"쩜":3071,"쩝":3072,"쩟":3073,"쩠":3074,"쩡":3075,"쩢":3076,"쩦":3077,"쩧":3078,"쩨":3079,"쩬":3080,"쩻":3081,"쪄":3082,"쪅":3083,"쪈":3084,"쪌":3085,"쪔":3086,"쪕":3087,"쪗":3088,"쪘":3089,"쪙":3090,"쪚":3091,"쪼":3092,"쪽":3093,"쪾":3094,"쫀":3095,"쫃":3096,"쫄":3097,"쫌":3098,"쫍":3099,"쫏":3100,"쫐":3101,"쫑":3102,"쫒":3103,"쫓":3104,"쫔":3105,"쫗":3106,"쫘":3107,"쫙":3108,"쫠":3109,"쫩":3110,"쫭":3111,"쫴":3112,"쬐":3113,"쬑":3114,"쬠":3115,"쬬":3116,"쬭":3117,"쬼":3118,"쬽":3119,"쬿":3120,"쭀":3121,"쭁":3122,"쭈":3123,"쭉":3124,"쭌":3125,"쭐":3126,"쭘":3127,"쭙":3128,"쭛":3129,"쭝":3130,"쭞":3131,"쭟":3132,"쭤":3133,"쭥":3134,"쭵":3135,"쭸":3136,"쭹":3137,"쮜":3138,"쮝":3139,"쮠":3140,"쮭":3141,"쮸":3142,"쮹":3143,"쯉":3144,"쯍":3145,"쯔":3146,"쯕":3147,"쯘":3148,"쯜":3149,"쯤":3150,"쯥":3151,"쯧":3152,"쯨":3153,"쯩":3154,"쯪":3155,"쯫":3156,"쯰":3157,"찌":3158,"찍":3159,"찎":3160,"찐":3161,"찓":3162,"찔":3163,"찜":3164,"찝":3165,"찟":3166,"찠":3167,"찡":3168,"찢":3169,"찣":3170,"찤":3171,"찦":3172,"찧":3173,"차":3174,"착":3175,"찬":3176,"찮":3177,"찯":3178,"찰":3179,"찱":3180,"찴":3181,"찷":3182,"참":3183,"찹":3184,"찻":3185,"찼":3186,"창":3187,"찾":3188,"찿":3189,"챀":3190,"챃":3191,"채":3192,"책":3193,"챈":3194,"챌":3195,"챔":3196,"챕":3197,"챗":3198,"챘":3199,"챙":3200,"챠":3201,"챡":3202,"챤":3203,"챦":3204,"챨":3205,"챰":3206,"챱":3207,"챴":3208,"챵":3209,"챼":3210,"챽":3211,"처":3212,"척":3213,"천":3214,"첝":3215,"첞":3216,"첟":3217,"철":3218,"첢":3219,"첨":3220,"첩":3221,"첫":3222,"첬":3223,"청":3224,"첮":3225,"첯":3226,"첰":3227,"첲":3228,"첳":3229,"체":3230,"첵":3231,"첸":3232,"첼":3233,"쳄":3234,"쳇":3235,"쳈":3236,"쳉":3237,"쳌":3238,"쳐":3239,"쳑":3240,"쳔":3241,"쳘":3242,"쳠":3243,"쳡":3244,"쳣":3245,"쳤":3246,"쳥":3247,"쳦":3248,"쳧":3249,"쳨":3250,"쳫":3251,"쳬":3252,"촀":3253,"초":3254,"촉":3255,"촌":3256,"촏":3257,"촐":3258,"촘":3259,"촙":3260,"촛":3261,"총":3262,"촞":3263,"촟":3264,"촣":3265,"촤":3266,"촥":3267,"촨":3268,"촬":3269,"촰":3270,"촴":3271,"촵":3272,"촹":3273,"쵀":3274,"최":3275,"쵝":3276,"쵠":3277,"쵤":3278,"쵯":3279,"쵱":3280,"쵸":3281,"쵹":3282,"쵼":3283,"춈":3284,"춉":3285,"춋":3286,"춌":3287,"춍":3288,"추":3289,"축":3290,"춘":3291,"출":3292,"춠":3293,"춣":3294,"춤":3295,"춥":3296,"춧":3297,"충":3298,"춪":3299,"춫":3300,"춬":3301,"춯":3302,"춰":3303,"춴":3304,"췁":3305,"췃":3306,"췄":3307,"췅":3308,"췌":3309,"췍":3310,"췐":3311,"췟":3312,"췡":3313,"취":3314,"췩":3315,"췬":3316,"췰":3317,"췻":3318,"췼":3319,"췽":3320,"츄":3321,"츅":3322,"츈":3323,"츌":3324,"츔":3325,"츕":3326,"츙":3327,"츠":3328,"측":3329,"츤":3330,"츨":3331,"츰":3332,"츱":3333,"츳":3334,"층":3335,"츼":3336,"칀":3337,"칄":3338,"칑":3339,"치":3340,"칙":3341,"친":3342,"칝":3343,"칞":3344,"칟":3345,"칠":3346,"칡":3347,"침":3348,"칩":3349,"칫":3350,"칬":3351,"칭":3352,"칮":3353,"칯":3354,"칰":3355,"칲":3356,"칳":3357,"카":3358,"칵":3359,"칸":3360,"칼":3361,"캄":3362,"캅":3363,"캆":3364,"캇":3365,"캈":3366,"캉":3367,"캌":3368,"캍":3369,"캐":3370,"캑":3371,"캔":3372,"캘":3373,"캠":3374,"캡":3375,"캣":3376,"캤":3377,"캥":3378,"캪":3379,"캬":3380,"캭":3381,"컁":3382,"컄":3383,"컈":3384,"커":3385,"컥":3386,"컨":3387,"컫":3388,"컬":3389,"컴":3390,"컵":3391,"컷":3392,"컸":3393,"컹":3394,"컼":3395,"컽":3396,"케":3397,"켁":3398,"켄":3399,"켈":3400,"켐":3401,"켑":3402,"켓":3403,"켔":3404,"켕":3405,"켘":3406,"켙":3407,"켜":3408,"켝":3409,"켠":3410,"켤":3411,"켬":3412,"켭":3413,"켯":3414,"켰":3415,"켱":3416,"켷":3417,"켸":3418,"콌":3419,"코":3420,"콕":3421,"콘":3422,"콜":3423,"콤":3424,"콥":3425,"콧":3426,"콩":3427,"콫":3428,"콬":3429,"콰":3430,"콱":3431,"콴":3432,"콸":3433,"쾅":3434,"쾈":3435,"쾌":3436,"쾍":3437,"쾐":3438,"쾡":3439,"쾨":3440,"쿄":3441,"쿠":3442,"쿡":3443,"쿤":3444,"쿨":3445,"쿰":3446,"쿱":3447,"쿳":3448,"쿵":3449,"쿸":3450,"쿼":3451,"퀀":3452,"퀄":3453,"퀘":3454,"퀙":3455,"퀭":3456,"퀴":3457,"퀵":3458,"퀸":3459,"퀼":3460,"큉":3461,"큐":3462,"큑":3463,"큔":3464,"큘":3465,"큥":3466,"큨":3467,"크":3468,"큭":3469,"큰":3470,"큲":3471,"클":3472,"큼":3473,"큽":3474,"큿":3475,"킁":3476,"킄":3477,"킅":3478,"킈":3479,"킝":3480,"키":3481,"킥":3482,"킨":3483,"킫":3484,"킬":3485,"킴":3486,"킵":3487,"킷":3488,"킸":3489,"킹":3490,"킺":3491,"킼":3492,"타":3493,"탁":3494,"탄":3495,"탇":3496,"탈":3497,"탉":3498,"탐":3499,"탑":3500,"탓":3501,"탔":3502,"탕":3503,"탖":3504,"탘":3505,"탙":3506,"태":3507,"택":3508,"탠":3509,"탣":3510,"탤":3511,"탬":3512,"탭":3513,"탯":3514,"탰":3515,"탱":3516,"탸":3517,"탹":3518,"탼":3519,"턀":3520,"턍":3521,"턔":3522,"턕":3523,"터":3524,"턱":3525,"턴":3526,"털":3527,"텀":3528,"텁":3529,"텃":3530,"텄":3531,"텅":3532,"텆":3533,"텈":3534,"텊":3535,"텋":3536,"테":3537,"텍":3538,"텐":3539,"텔":3540,"템":3541,"텝":3542,"텟":3543,"텡":3544,"텤":3545,"텦":3546,"텨":3547,"텩":3548,"텬":3549,"텰":3550,"텻":3551,"텼":3552,"텽":3553,"톄":3554,"톈":3555,"톔":3556,"토":3557,"톡":3558,"톤":3559,"톨":3560,"톰":3561,"톱":3562,"톳":3563,"통":3564,"톹":3565,"톻":3566,"톼":3567,"퇄":3568,"퇘":3569,"퇙":3570,"퇫":3571,"퇬":3572,"퇴":3573,"퇵":3574,"퇸":3575,"퇼":3576,"툇":3577,"툈":3578,"툐":3579,"툥":3580,"투":3581,"툭":3582,"툰":3583,"툴":3584,"툻":3585,"툼":3586,"툽":3587,"퉁":3588,"퉈":3589,"퉌":3590,"퉛":3591,"퉜":3592,"퉤":3593,"퉥":3594,"퉵":3595,"퉷":3596,"퉸":3597,"퉽":3598,"튀":3599,"튁":3600,"튄":3601,"튈":3602,"튐":3603,"튑":3604,"튓":3605,"튕":3606,"튜":3607,"튠":3608,"튤":3609,"튬":3610,"튭":3611,"튱":3612,"트":3613,"특":3614,"튼":3615,"튽":3616,"튿":3617,"틀":3618,"틁":3619,"틅":3620,"틈":3621,"틉":3622,"틋":3623,"틍":3624,"틐":3625,"틑":3626,"틔":3627,"틘":3628,"틜":3629,"티":3630,"틱":3631,"틴":3632,"틸":3633,"팀":3634,"팁":3635,"팃":3636,"팅":3637,"파":3638,"팍":3639,"팎":3640,"판":3641,"팓":3642,"팔":3643,"팕":3644,"팛":3645,"팜":3646,"팝":3647,"팟":3648,"팠":3649,"팡":3650,"팢":3651,"팤":3652,"팥":3653,"팦":3654,"팧":3655,"패":3656,"팩":3657,"팬":3658,"팰":3659,"팸":3660,"팹":3661,"팻":3662,"팼":3663,"팽":3664,"퍀":3665,"퍄":3666,"퍅":3667,"퍈":3668,"퍌":3669,"퍙":3670,"퍠":3671,"퍼":3672,"퍽":3673,"펀":3674,"펄":3675,"펌":3676,"펍":3677,"펏":3678,"펐":3679,"펑":3680,"펔":3681,"페":3682,"펙":3683,"펜":3684,"펠":3685,"펨":3686,"펩":3687,"펫":3688,"펭":3689,"펰":3690,"펴":3691,"펵":3692,"편":3693,"펼":3694,"폄":3695,"폅":3696,"폇":3697,"폈":3698,"평":3699,"폐":3700,"폑":3701,"폔":3702,"폠":3703,"폣":3704,"폥":3705,"포":3706,"폭":3707,"폰":3708,"폳":3709,"폴":3710,"폼":3711,"폽":3712,"폿":3713,"퐁":3714,"퐄":3715,"퐈":3716,"퐉":3717,"퐌":3718,"퐐":3719,"퐛":3720,"퐝":3721,"푀":3722,"표":3723,"푝":3724,"푠":3725,"푤":3726,"푯":3727,"푱":3728,"푸":3729,"푹":3730,"푼":3731,"풀":3732,"품":3733,"풉":3734,"풋":3735,"풍":3736,"풐":3737,"풑":3738,"풒":3739,"풓":3740,"풔":3741,"풜":3742,"풰":3743,"풱":3744,"퓌":3745,"퓡":3746,"퓨":3747,"퓬":3748,"퓰":3749,"퓸":3750,"퓹":3751,"퓽":3752,"프":3753,"픅":3754,"픈":3755,"플":3756,"픔":3757,"픕":3758,"픗":3759,"픙":3760,"픞":3761,"픠":3762,"픵":3763,"피":3764,"픽":3765,"핀":3766,"필":3767,"핌":3768,"핍":3769,"핏":3770,"핑":3771,"핓":3772,"핗":3773,"하":3774,"학":3775,"핛":3776,"한":3777,"핝":3778,"핞":3779,"핟":3780,"할":3781,"핡":3782,"핢":3783,"핣":3784,"핤":3785,"핥":3786,"핦":3787,"핧":3788,"함":3789,"합":3790,"핪":3791,"핫":3792,"핬":3793,"항":3794,"핮":3795,"핰":3796,"핱":3797,"핲":3798,"핳":3799,"해":3800,"핵":3801,"핶":3802,"핸":3803,"핻":3804,"핼":3805,"핽":3806,"햄":3807,"햅":3808,"햇":3809,"했":3810,"행":3811,"햊":3812,"햋":3813,"햌":3814,"햏":3815,"햐":3816,"햑":3817,"햔":3818,"햘":3819,"햙":3820,"햛":3821,"햝":3822,"햟":3823,"햠":3824,"햡":3825,"햣":3826,"햤":3827,"향":3828,"햩":3829,"햬":3830,"햭":3831,"햰":3832,"햿":3833,"헀":3834,"헁":3835,"허":3836,"헉":3837,"헌":3838,"헐":3839,"헑":3840,"헕":3841,"헗":3842,"험":3843,"헙":3844,"헛":3845,"헜":3846,"헝":3847,"헠":3848,"헡":3849,"헣":3850,"헤":3851,"헥":3852,"헨":3853,"헬":3854,"헴":3855,"헷":3856,"헸":3857,"헹":3858,"헼":3859,"헿":3860,"혀":3861,"혁":3862,"현":3863,"혈":3864,"혐":3865,"협":3866,"혓":3867,"혔":3868,"형":3869,"혖":3870,"혘":3871,"혙":3872,"혚":3873,"혛":3874,"혜":3875,"혝":3876,"혠":3877,"혤":3878,"혱":3879,"호":3880,"혹":3881,"혼":3882,"홀":3883,"홈":3884,"홉":3885,"홋":3886,"홍":3887,"홐":3888,"홑":3889,"홓":3890,"화":3891,"확":3892,"환":3893,"홛":3894,"활":3895,"홣":3896,"홤":3897,"홥":3898,"홧":3899,"홨":3900,"황":3901,"홬":3902,"홯":3903,"홰":3904,"홱":3905,"횃":3906,"횄":3907,"횅":3908,"회":3909,"획":3910,"횐":3911,"횔":3912,"횝":3913,"횟":3914,"횡":3915,"횢":3916,"횤":3917,"효":3918,"횩":3919,"횬":3920,"횰":3921,"횻":3922,"횽":3923,"후":3924,"훅":3925,"훈":3926,"훌":3927,"훍":3928,"훑":3929,"훓":3930,"훔":3931,"훕":3932,"훗":3933,"훙":3934,"훚":3935,"훜":3936,"훝":3937,"훟":3938,"훠":3939,"훡":3940,"훤":3941,"훨":3942,"훯":3943,"훰":3944,"훱":3945,"훳":3946,"훵":3947,"훻":3948,"훼":3949,"훽":3950,"휀":3951,"휄":3952,"휏":3953,"휑":3954,"휘":3955,"휙":3956,"휜":3957,"휠":3958,"휨":3959,"휩":3960,"휫":3961,"휭":3962,"휴":3963,"휵":3964,"휸":3965,"휼":3966,"흄":3967,"흉":3968,"흌":3969,"흐":3970,"흑":3971,"흔":3972,"흘":3973,"흙":3974,"흝":3975,"흠":3976,"흡":3977,"흣":3978,"흥":3979,"흨":3980,"흩":3981,"흫":3982,"희":3983,"흭":3984,"흰":3985,"흴":3986,"흼":3987,"흽":3988,"힁":3989,"히":3990,"힉":3991,"힌":3992,"힏":3993,"힐":3994,"힘":3995,"힙":3996,"힛":3997,"힜":3998,"힝":3999,"힞":4000,"힠":4001,"힢":4002,"힣":4003,"％":4004,"##블":4005,"##어":4006,"##빠":4007,"##루":4008,"##0":4009,"##개":4010,"##국":4011,"##이":4012,"##랑":4013,"##북":4014,"##운":4015,"##동":4016,"##도":4017,"##하":4018,"##시":4019,"##지":4020,"##진":4021,"##자":4022,"##를":4023,"##위":4024,"##해":4025,"##살":4026,"##고":4027,"##인":4028,"##사":4029,"##건":4030,"##접":4031,"##대":4032,"##서":4033,"##콩":4034,"##던":4035,"##기":4036,"##아":4037,"##페":4038,"##스":4039,"##x":4040,"##의":4041,"##강":4042,"##욱":4043,"##쓰":4044,"##레":4045,"##폐":4046,"##처":4047,"##분":4048,"##응":4049,"##가":4050,"##능":4051,"##했":4052,"##을":4053,"##텐":4054,"##데":4055,"##렌":4056,"##젠":4057,"##다":4058,"##무":4059,"##질":4060,"##발":4061,"##전":4062,"##에":4063,"##각":4064,"##본":4065,"##ㅋ":4066,"##제":4067,"##입":4068,"##한":4069,"##거":4070,"##요":4071,"##닝":4072,"##문":4073,"##썬":4074,"##나":4075,"##뭐":4076,"##냐":4077,"##성":4078,"##애":4079,"##권":4080,"##장":4081,"##는":4082,"##작":4083,"##젴":4084,"##탄":4085,"##불":4086,"##네":4087,"##너":4088,"##생":4089,"##드":4090,"##i":4091,"##h":4092,"##o":4093,"##n":4094,"##으":4095,"##로":4096,"##래":4097,"##앞":4098,"##뒤":4099,"##막":4100,"##힌":4101,"##올":4102,"##라":4103,"##오":4104,"##겠":4105,"##민":4106,"##세":4107,"##금":4108,"##월":4109,"##급":4110,"##받":4111,"##탁":4112,"##키":4113,"##니":4114,"##까":4115,"##알":4116,"##잖":4117,"##죗":4118,"##값":4119,"##있":4120,"##신":4121,"##환":4122,"##줄":4123,"##ㅅ":4124,"##잡":4125,"##반":4126,"##섬":4127,"##많":4128,"##일":4129,"##당":4130,"##게":4131,"##된":4132,"##것":4133,"##들":4134,"##임":4135,"##령":4136,"##극":4137,"##적":4138,"##할":4139,"##수":4140,"##밖":4141,"##없":4142,"##깨":4143,"##닫":4144,"##럼":4145,"##비":4146,"##케":4147,"##단":4148,"##트":4149,"##공":4150,"##차":4151,"##렷":4152,"##ㅡ":4153,"##베":4154,"##였":4155,"##상":4156,"##번":4157,"##견":4158,"##득":4159,"##료":4160,"##승":4161,"##ㅈ":4162,"##ㄱ":4163,"##못":4164,"##경":4165,"##희":4166,"##퍼":4167,"##센":4168,"##과":4169,"##빙":4170,"##벨":4171,"##면":4172,"##역":4173,"##겨":4174,"##썼":4175,"##누":4176,"##리":4177,"##족":4178,"##꾼":4179,"##조":4180,"##습":4181,"##산":4182,"##방":4183,"##식":4184,"##릴":4185,"##께":4186,"##명":4187,"##화":4188,"##계":4189,"##법":4190,"##변":4191,"##은":4192,"##증":4193,"##소":4194,"##원":4195,"##박":4196,"##여":4197,"##같":4198,"##쫑":4199,"##란":4200,"##평":4201,"##등":4202,"##글":4203,"##좌":4204,"##표":4205,"##업":4206,"##률":4207,"##폭":4208,"##속":4209,"##더":4210,"##않":4211,"##았":4212,"##ㅜ":4213,"##4":4214,"##년":4215,"##안":4216,"##얼":4217,"##마":4218,"##체":4219,"##만":4220,"##치":4221,"##보":4222,"##린":4223,"##야":4224,"##배":4225,"##됨":4226,"##목":4227,"##편":4228,"##좋":4229,"##구":4230,"##톡":4231,"##부":4232,"##럽":4233,"##노":4234,"##슨":4235,"##주":4236,"##예":4237,"##긴":4238,"##찰":4239,"##었":4240,"##준":4241,"##그":4242,"##빨":4243,"##갱":4244,"##락":4245,"##룩":4246,"##될":4247,"##져":4248,"##줬":4249,"##닼":4250,"##겹":4251,"##ㄹ":4252,"##ㅇ":4253,"##쳐":4254,"##놈":4255,"##절":4256,"##돼":4257,"##청":4258,"##잇":4259,"##간":4260,"##러":4261,"##떨":4262,"##재":4263,"##맨":4264,"##쇼":4265,"##유":4266,"##녔":4267,"##음":4268,"##행":4269,"##려":4270,"##둘":4271,"##집":4272,"##플":4273,"##랜":4274,"##워":4275,"##천":4276,"##태":4277,"##벌":4278,"##두":4279,"##륵":4280,"##긋":4281,"##괴":4282,"##롭":4283,"##히":4284,"##줘":4285,"##쓉":4286,"##룰":4287,"##ㄲ":4288,"##토":4289,"##든":4290,"##씨":4291,"##연":4292,"##바":4293,"##력":4294,"##앙":4295,"##추":4296,"##량":4297,"##믿":4298,"##호":4299,"##합":4300,"##점":4301,"##종":4302,"##언":4303,"##때":4304,"##숭":4305,"##선":4306,"##밀":4307,"##설":4308,"##염":4309,"##롱":4310,"##군":4311,"##정":4312,"##근":4313,"##폰":4314,"##냄":4315,"##새":4316,"##코":4317,"##프":4318,"##중":4319,"##광":4320,"##충":4321,"##늠":4322,"##외":4323,"##낸":4324,"##듯":4325,"##삶":4326,"##갈":4327,"##빡":4328,"##칠":4329,"##며":4330,"##와":4331,"##름":4332,"##터":4333,"##늘":4334,"##좀":4335,"##달":4336,"##난":4337,"##첩":4338,"##색":4339,"##긔":4340,"##1":4341,"##2":4342,"##3":4343,"##렵":4344,"##뷰":4345,"##내":4346,"##컨":4347,"##팅":4348,"##미":4349,"##따":4350,"##쑈":4351,"##타":4352,"##쟁":4353,"##통":4354,"##껑":4355,"##덥":4356,"##덮":4357,"##랍":4358,"##확":4359,"##빈":4360,"##함":4361,"##람":4362,"##댓":4363,"##모":4364,"##빵":4365,"##쪼":4366,"##규":4367,"##교":4368,"##걸":4369,"##뻔":4370,"##양":4371,"##육":4372,"##떼":4373,"##용":4374,"##채":4375,"##우":4376,"##말":4377,"##놓":4378,"##파":4379,"##겁":4380,"##후":4381,"##덕":4382,"##k":4383,"##텨":4384,"##졋":4385,"##먹":4386,"##높":4387,"##볏":4388,"##쾌":4389,"##택":4390,"##품":4391,"##판":4392,"##6":4393,"##꿀":4394,"##r":4395,"##책":4396,"##봄":4397,"##빼":4398,"##되":4399,"##림":4400,"##넌":4401,"##활":4402,"##쇄":4403,"##s":4404,"##f":4405,"##ㅏ":4406,"##줌":4407,"##최":4408,"##류":4409,"##옮":4410,"##길":4411,"##잌":4412,"##갔":4413,"##송":4414,"##맛":4415,"##패":4416,"##돌":4417,"##쩌":4418,"##감":4419,"##학":4420,"##7":4421,"##봐":4422,"##앗":4423,"##석":4424,"##엎":4425,"##물":4426,"##켠":4427,"##딩":4428,"##논":4429,"##련":4430,"##끊":4431,"##버":4432,"##브":4433,"##커":4434,"##망":4435,"##햇":4436,"##죠":4437,"##결":4438,"##직":4439,"##멘":4440,"##탈":4441,"##촛":4442,"##님":4443,"##쌔":4444,"##셨":4445,"##손":4446,"##끄":4447,"##팔":4448,"##8":4449,"##십":4450,"##밝":4451,"##혀":4452,"##록":4453,"##싢":4454,"##관":4455,"##싶":4456,"##떤":4457,"##ㅠ":4458,"##황":4459,"##눠":4460,"##남":4461,"##크":4462,"##빛":4463,"##왕":4464,"##맞":4465,"##른":4466,"##검":4467,"##쇅":4468,"##꺼":4469,"##꼴":4470,"##벙":4471,"##붓":4472,"##창":4473,"##초":4474,"##힘":4475,"##쁜":4476,"##랫":4477,"##땜":4478,"##잘":4479,"##심":4480,"##술":4481,"##튀":4482,"##잽":4483,"##꺄":4484,"##죄":4485,"##영":4486,"##착":4487,"##왜":4488,"##갑":4489,"##슷":4490,"##옹":4491,"##귀":4492,"##피":4493,"##디":4494,"##존":4495,"##머":4496,"##넣":4497,"##펴":4498,"##c":4499,"##t":4500,"##v":4501,"##좆":4502,"##앓":4503,"##싸":4504,"##움":4505,"##찌":4506,"##륜":4507,"##혜":4508,"##낳":4509,"##실":4510,"##켜":4511,"##열":4512,"##온":4513,"##침":4514,"##현":4515,"##짓":4516,"##날":4517,"##융":4518,"##회":4519,"##탱":4520,"##줫":4521,"##매":4522,"##믄":4523,"##졸":4524,"##뉘":4525,"##범":4526,"##곰":4527,"##찬":4528,"##백":4529,"##뚫":4530,"##닌":4531,"##껄":4532,"##뽕":4533,"##끼":4534,"##깁":4535,"##괭":4536,"##흉":4537,"##쌍":4538,"##팀":4539,"##잔":4540,"##딸":4541,"##답":4542,"##느":4543,"##테":4544,"##짜":4545,"##욕":4546,"##댜":4547,"##혁":4548,"##깊":4549,"##솔":4550,"##론":4551,"##납":4552,"##병":4553,"##뢰":4554,"##취":4555,"##닦":4556,"##곳":4557,"##뿐":4558,"##랄":4559,"##약":4560,"##헛":4561,"##투":4562,"##ㅉ":4563,"##롯":4564,"##필":4565,"##볍":4566,"##꼬":4567,"##랭":4568,"##뒈":4569,"##순":4570,"##복":4571,"##허":4572,"##즘":4573,"##암":4574,"##냉":4575,"##골":4576,"##억":4577,"##5":4578,"##칙":4579,"##삼":4580,"##낱":4581,"##헤":4582,"##엑":4583,"##흘":4584,"##찿":4585,"##탓":4586,"##눈":4587,"##렴":4588,"##ㅎ":4589,"##읕":4590,"##m":4591,"##옳":4592,"##떻":4593,"##꾸":4594,"##훈":4595,"##쨔":4596,"##팽":4597,"##셔":4598,"##티":4599,"##a":4600,"##밟":4601,"##혔":4602,"##뒀":4603,"##껍":4604,"##킨":4605,"##맥":4606,"##콜":4607,"##담":4608,"##출":4609,"##겸":4610,"##w":4611,"##y":4612,"##찾":4613,"##맡":4614,"##쓴":4615,"##벼":4616,"##메":4617,"##꼭":4618,"##짱":4619,"##먼":4620,"##깜":4621,"##찍":4622,"##삐":4623,"##춘":4624,"##저":4625,"##휘":4626,"##참":4627,"##홍":4628,"##l":4629,"##돗":4630,"##랖":4631,"##욤":4632,"##랐":4633,"##슬":4634,"##씩":4635,"##됬":4636,"##혹":4637,"##녹":4638,"##뇌":4639,"##르":4640,"##셰":4641,"##켰":4642,"##졌":4643,"##듬":4644,"##또":4645,"##깐":4646,"##죽":4647,"##형":4648,"##렸":4649,"##돈":4650,"##항":4651,"##링":4652,"##립":4653,"##총":4654,"##및":4655,"##둥":4656,"##얘":4657,"##짐":4658,"##포":4659,"##징":4660,"##밥":4661,"##엥":4662,"##쏘":4663,"##악":4664,"##낀":4665,"##잠":4666,"##써":4667,"##릎":4668,"##꿇":4669,"##틸":4670,"##낯":4671,"##풀":4672,"##샀":4673,"##탠":4674,"##넘":4675,"##멋":4676,"##몰":4677,"##싱":4678,"##랬":4679,"##짝":4680,"##꿍":4681,"##겟":4682,"##밭":4683,"##쪽":4684,"##획":4685,"##찔":4686,"##딱":4687,"##즉":4688,"##뜯":4689,"##쉬":4690,"##격":4691,"##철":4692,"##털":4693,"##J":4694,"##T":4695,"##B":4696,"##C":4697,"##템":4698,"##엔":4699,"##큼":4700,"##9":4701,"##쁘":4702,"##액":4703,"##컴":4704,"##퓨":4705,"##ㅗ":4706,"##울":4707,"##멸":4708,"##농":4709,"##홧":4710,"##힐":4711,"##팍":4712,"##궁":4713,"##닭":4714,"##뇬":4715,"##친":4716,"##놨":4717,"##걱":4718,"##쌩":4719,"##D":4720,"##즈":4721,"##팩":4722,"##읍":4723,"##좍":4724,"##났":4725,"##슈":4726,"##껀":4727,"##둔":4728,"##완":4729,"##틀":4730,"##므":4731,"##율":4732,"##겄":4733,"##측":4734,"##됐":4735,"##A":4736,"##L":4737,"##댄":4738,"##끗":4739,"##혼":4740,"##춰":4741,"##멍":4742,"##김":4743,"##향":4744,"##섰":4745,"##카":4746,"##컷":4747,"##봤":4748,"##쉐":4749,"##맘":4750,"##렇":4751,"##클":4752,"##뉴":4753,"##팻":4754,"##뜨":4755,"##끝":4756,"##엇":4757,"##ㄴ":4758,"##슝":4759,"##쉽":4760,"##넉":4761,"##웃":4762,"##런":4763,"##뀌":4764,"##씹":4765,"##봉":4766,"##삿":4767,"##g":4768,"##냥":4769,"##ㅂ":4770,"##놀":4771,"##험":4772,"##빌":4773,"##뤄":4774,"##렁":4775,"##앱":4776,"##칭":4777,"##겐":4778,"##뎅":4779,"##쇠":4780,"##앤":4781,"##협":4782,"##덜":4783,"##껴":4784,"##쳣":4785,"##딘":4786,"##층":4787,"##밪":4788,"##붕":4789,"##봅":4790,"##압":4791,"##끌":4792,"##컬":4793,"##깔":4794,"##럴":4795,"##숨":4796,"##낮":4797,"##덧":4798,"##첨":4799,"##잉":4800,"##샘":4801,"##괜":4802,"##찮":4803,"##독":4804,"##닙":4805,"##턴":4806,"##핵":4807,"##떠":4808,"##싫":4809,"##픽":4810,"##떡":4811,"##텅":4812,"##듣":4813,"##O":4814,"##툼":4815,"##낫":4816,"##땅":4817,"##넼":4818,"##칸":4819,"##쌀":4820,"##톨":4821,"##덩":4822,"##촌":4823,"##줭":4824,"##례":4825,"##녕":4826,"##뽑":4827,"##컹":4828,"##곡":4829,"##똥":4830,"##쌌":4831,"##롤":4832,"##b":4833,"##d":4834,"##솨":4835,"##뿌":4836,"##쳤":4837,"##몇":4838,"##괄":4839,"##귄":4840,"##틈":4841,"##웠":4842,"##릉":4843,"##잎":4844,"##척":4845,"##녀":4846,"##별":4847,"##됌":4848,"##붙":4849,"##뜩":4850,"##졀":4851,"##돋":4852,"##쎄":4853,"##늄":4854,"##펀":4855,"##핀":4856,"##챙":4857,"##슥":4858,"##궐":4859,"##쥐":4860,"##괘":4861,"##ㅓ":4862,"##폈":4863,"##옷":4864,"##밑":4865,"##옆":4866,"##섭":4867,"##곤":4868,"##릅":4869,"##젖":4870,"##ㅆ":4871,"##뤘":4872,"##텋":4873,"##횡":4874,"##ㅔ":4875,"##e":4876,"##췌":4877,"##델":4878,"##탕":4879,"##흔":4880,"##읽":4881,"##윤":4882,"##쭈":4883,"##싯":4884,"##ㄷ":4885,"##밌":4886,"##싼":4887,"##왔":4888,"##축":4889,"##갰":4890,"##얻":4891,"##H":4892,"##룡":4893,"##햔":4894,"##특":4895,"##엠":4896,"##효":4897,"##맙":4898,"##줍":4899,"##갇":4900,"##덴":4901,"##캄":4902,"##븅":4903,"##찐":4904,"##찜":4905,"##푸":4906,"##썅":4907,"##헬":4908,"##엊":4909,"##렬":4910,"##봇":4911,"##헌":4912,"##넚":4913,"##ㅣ":4914,"##좃":4915,"##렐":4916,"##잃":4917,"##칩":4918,"##딴":4919,"##늪":4920,"##햐":4921,"##댐":4922,"##눌":4923,"##픈":4924,"##숙":4925,"##쿨":4926,"##쟤":4927,"##샷":4928,"##ㅁ":4929,"##턱":4930,"##갖":4931,"##쌉":4932,"##뜻":4933,"##뀔":4934,"##흑":4935,"##둑":4936,"##꽂":4937,"##휴":4938,"##ㅊ":4939,"##E":4940,"##깠":4941,"##S":4942,"##됀":4943,"##둬":4944,"##튼":4945,"##즙":4946,"##겼":4947,"##닥":4948,"##엄":4949,"##잭":4950,"##횃":4951,"##픔":4952,"##쌋":4953,"##혐":4954,"##뜰":4955,"##쓸":4956,"##삽":4957,"##륙":4958,"##쥡":4959,"##뺄":4960,"##딨":4961,"##끔":4962,"##쇆":4963,"##짤":4964,"##혓":4965,"##짆":4966,"##익":4967,"##챘":4968,"##묻":4969,"##돠":4970,"##셧":4971,"##옥":4972,"##엮":4973,"##쭝":4974,"##꾹":4975,"##렙":4976,"##갓":4977,"##ㅌ":4978,"##X":4979,"##큰":4980,"##빚":4981,"##벽":4982,"##굳":4983,"##젓":4984,"##램":4985,"##낙":4986,"##냈":4987,"##먄":4988,"##퇴":4989,"##엉":4990,"##빤":4991,"##볼":4992,"##윈":4993,"##묵":4994,"##씀":4995,"##쯤":4996,"##밬":4997,"##꿈":4998,"##퀴":4999,"##탑":5000,"##릇":5001,"##j":5002,"##슐":5003,"##굴":5004,"##쉑":5005,"##짖":5006,"##씸":5007,"##훨":5008,"##땐":5009,"##넒":5010,"##뮤":5011,"##칼":5012,"##둣":5013,"##샛":5014,"##즌":5015,"##멀":5016,"##굿":5017,"##됙":5018,"##쉴":5019,"##객":5020,"##똑":5021,"##M":5022,"##랙":5023,"##뭔":5024,"##깃":5025,"##띄":5026,"##쏭":5027,"##캔":5028,"##늉":5029,"##뚝":5030,"##듀":5031,"##꼽":5032,"##톤":5033,"##늩":5034,"##펄":5035,"##댔":5036,"##믹":5037,"##념":5038,"##흐":5039,"##춤":5040,"##꽤":5041,"##갘":5042,"##쑤":5043,"##찢":5044,"##탬":5045,"##뺏":5046,"##즐":5047,"##닐":5048,"##뺌":5049,"##넓":5050,"##ㅐ":5051,"##냔":5052,"##킬":5053,"##쩔":5054,"##뛰":5055,"##략":5056,"##W":5057,"##뒨":5058,"##놔":5059,"##셈":5060,"##낭":5061,"##웅":5062,"##혈":5063,"##댈":5064,"##꿔":5065,"##묘":5066,"##캐":5067,"##띠":5068,"##뭘":5069,"##웹":5070,"##킹":5071,"##땀":5072,"##궉":5073,"##똘":5074,"##넝":5075,"##쒜":5076,"##쁠":5077,"##캬":5078,"##씌":5079,"##팡":5080,"##엿":5081,"##쭉":5082,"##놯":5083,"##댸":5084,"##뿟":5085,"##G":5086,"##벗":5087,"##숟":5088,"##앟":5089,"##겉":5090,"##틴":5091,"##싹":5092,"##앉":5093,"##쩍":5094,"##뤼":5095,"##렀":5096,"##귝":5097,"##녁":5098,"##쿡":5099,"##헨":5100,"##녾":5101,"##널":5102,"##얐":5103,"##쉭":5104,"##쿠":5105,"##넨":5106,"##밨":5107,"##몽":5108,"##뺜":5109,"##츄":5110,"##룹":5111,"##듄":5112,"##왓":5113,"##늙":5114,"##핑":5115,"##겅":5116,"##덤":5117,"##랴":5118,"##맹":5119,"##꽁":5120,"##밈":5121,"##뿍":5122,"##왈":5123,"##닮":5124,"##놘":5125,"##겈":5126,"##퍙":5127,"##틱":5128,"##셋":5129,"##뽤":5130,"##옴":5131,"##폔":5132,"##컵":5133,"##랏":5134,"##갚":5135,"##뜌":5136,"##갤":5137,"##퓌":5138,"##풍":5139,"##굽":5140,"##엘":5141,"##균":5142,"##엌":5143,"##섯":5144,"##툴":5145,"##샤":5146,"##싷":5147,"##씬":5148,"##윽":5149,"##헹":5150,"##깡":5151,"##촉":5152,"##밍":5153,"##u":5154,"##V":5155,"##텔":5156,"##z":5157,"##펌":5158,"##깎":5159,"##룸":5160,"##큐":5161,"##콤":5162,"##펑":5163,"##겧":5164,"##얬":5165,"##윌":5166,"##먕":5167,"##뜬":5168,"##렜":5169,"##K":5170,"##탐":5171,"##몃":5172,"##냅":5173,"##쟈":5174,"##뻘":5175,"##웰":5176,"##녓":5177,"##뀐":5178,"##뇨":5179,"##됫":5180,"##쌓":5181,"##욧":5182,"##윙":5183,"##닷":5184,"##깝":5185,"##킈":5186,"##켓":5187,"##꼈":5188,"##톱":5189,"##꼰":5190,"##팬":5191,"##탤":5192,"##눅":5193,"##떵":5194,"##땡":5195,"##퇘":5196,"##벅":5197,"##낼":5198,"##옵":5199,"##션":5200,"##듭":5201,"##짭":5202,"##쌨":5203,"##꽈":5204,"##뻐":5205,"##껭":5206,"##윰":5207,"##땨":5208,"##숫":5209,"##떄":5210,"##졔":5211,"##볓":5212,"##럭":5213,"##엽":5214,"##휼":5215,"##쒸":5216,"##쯔":5217,"##앨":5218,"##퍠":5219,"##쟝":5220,"##럈":5221,"##릭":5222,"##켙":5223,"##몬":5224,"##넥":5225,"##쪄":5226,"##닉":5227,"##냨":5228,"##샊":5229,"##뭉":5230,"##쌈":5231,"##됄":5232,"##걔":5233,"##숴":5234,"##졷":5235,"##멊":5236,"##낑":5237,"##잦":5238,"##흥":5239,"##낌":5240,"##훼":5241,"##쩜":5242,"##훤":5243,"##뎀":5244,"##괞":5245,"##얔":5246,"##ㅑ":5247,"##짗":5248,"##눔":5249,"##첫":5250,"##튜":5251,"##펜":5252,"##츕":5253,"##흙":5254,"##뵙":5255,"##렉":5256,"##뚱":5257,"##걷":5258,"##됴":5259,"##핸":5260,"##껌":5261,"##p":5262,"##럿":5263,"##짠":5264,"##삭":5265,"##됍":5266,"##젯":5267,"##쏴":5268,"##켔":5269,"##뽀":5270,"##짢":5271,"##멓":5272,"##딜":5273,"##븐":5274,"##궈":5275,"##뢔":5276,"##댕":5277,"##삘":5278,"##뻥":5279,"##째":5280,"##슙":5281,"##뮨":5282,"##ㅖ":5283,"##깟":5284,"##ㅛ":5285,"##슴":5286,"##몾":5287,"##R":5288,"##겆":5289,"##훔":5290,"##닞":5291,"##닿":5292,"##뤈":5293,"##헐":5294,"##꺽":5295,"##퀵":5296,"##뿅":5297,"##츼":5298,"##퉤":5299,"##벳":5300,"##뷔":5301,"##엡":5302,"##웨":5303,"##썩":5304,"##넋":5305,"##슽":5306,"##깽":5307,"##엣":5308,"##텄":5309,"##갯":5310,"##뿔":5311,"##껏":5312,"##뭇":5313,"##푼":5314,"##욬":5315,"##팜":5316,"##셜":5317,"##슘":5318,"##뽜":5319,"##웟":5320,"##쩡":5321,"##츠":5322,"##윕":5323,"##쭁":5324,"##닢":5325,"##읺":5326,"##탔":5327,"##뚜":5328,"##I":5329,"##젝":5330,"##쳄":5331,"##흩":5332,"##햋":5333,"##섹":5334,"##햬":5335,"##놋":5336,"##깇":5337,"##댁":5338,"##P":5339,"##늰":5340,"##곱":5341,"##N":5342,"##긎":5343,"##F":5344,"##맏":5345,"##둡":5346,"##썪":5347,"##숰":5348,"##낄":5349,"##땟":5350,"##숑":5351,"##핍":5352,"##쫌":5353,"##팸":5354,"##믜":5355,"##뤠":5356,"##흡":5357,"##Q":5358,"##됩":5359,"##걀":5360,"##뒷":5361,"##잏":5362,"##텼":5363,"##콘":5364,"##넹":5365,"##퍽":5366,"##퐈":5367,"##읎":5368,"##q":5369,"##쐬":5370,"##쫄":5371,"##뫀":5372,"##셤":5373,"##툽":5374,"##웬":5375,"##텍":5376,"##뽐":5377,"##뒸":5378,"##촬":5379,"##찝":5380,"##넠":5381,"##쓱":5382,"##쫘":5383,"##냦":5384,"##뎋":5385,"##곧":5386,"##릿":5387,"##콕":5388,"##졓":5389,"##슌":5390,"##빽":5391,"##ㅍ":5392,"##줮":5393,"##샹":5394,"##돔":5395,"##쳇":5396,"##뽈":5397,"##갸":5398,"##굶":5399,"##끓":5400,"##욯":5401,"##됏":5402,"##꼼":5403,"##닠":5404,"##뼝":5405,"##긍":5406,"##돝":5407,"##딪":5408,"##엨":5409,"##밴":5410,"##쩐":5411,"##뎃":5412,"##햏":5413,"##퉁":5414,"##쥬":5415,"##뺐":5416,"##얹":5417,"##깈":5418,"##닜":5419,"##셀":5420,"##깍":5421,"##Y":5422,"##툥":5423,"##뽄":5424,"##쵸":5425,"##쉼":5426,"##펠":5427,"##봣":5428,"##뱃":5429,"##텝":5430,"##샂":5431,"##섀":5432,"##겪":5433,"##샠":5434,"##랰":5435,"##펙":5436,"##걍":5437,"##깻":5438,"##쳔":5439,"##힙":5440,"##쟎":5441,"##끈":5442,"##놐":5443,"##굨":5444,"##뚤":5445,"##눙":5446,"##쒯":5447,"##긱":5448,"##꽃":5449,"##짚":5450,"##젊":5451,"##멜":5452,"##퀘":5453,"##펨":5454,"##낟":5455,"##돕":5456,"##뭏":5457,"##켈":5458,"##겻":5459,"##삥":5460,"##갭":5461,"##겤":5462,"##벵":5463,"##U":5464,"##잊":5465,"##꿉":5466,"##얜":5467,"##흠":5468,"##눟":5469,"##싨":5470,"##롸":5471,"##듷":5472,"##곁":5473,"##뮈":5474,"##펐":5475,"##쏨":5476,"##왁":5477,"##벤":5478,"##얍":5479,"##얄":5480,"##뻗":5481,"##깓":5482,"##쏼":5483,"##굘":5484,"##홉":5485,"##섞":5486,"##숲":5487,"##첵":5488,"##륭":5489,"##횔":5490,"##듵":5491,"##쨩":5492,"##줏":5493,"##잤":5494,"##깬":5495,"##킵":5496,"##랸":5497,"##햤":5498,"##펏":5499,"##늬":5500,"##쾅":5501,"##뭄":5502,"##섿":5503,"##첬":5504,"##ㄸ":5505,"##왖":5506,"##셉":5507,"##쿄":5508,"##롬":5509,"##깉":5510,"##둿":5511,"##끠":5512,"##튈":5513,"##껐":5514,"##쟌":5515,"##얃":5516,"##꽝":5517,"##딤":5518,"##뇽":5519,"##넿":5520,"##쏜":5521,"##쮸":5522,"##랠":5523,"##셩":5524,"##윳":5525,"##퀄":5526,"##쐐":5527,"##쳡":5528,"##옫":5529,"##뱀":5530,"##횽":5531,"##넵":5532,"##뼈":5533,"##믈":5534,"##껜":5535,"##젤":5536,"##쫒":5537,"##댱":5538,"##꺾":5539,"##퐁":5540,"##뿡":5541,"##쐭":5542,"##젼":5543,"##샏":5544,"##얌":5545,"##떔":5546,"##츌":5547,"##퍈":5548,"##톄":5549,"##쥼":5550,"##랩":5551,"##쫀":5552,"##팠":5553,"##홥":5554,"##뱉":5555,"##홀":5556,"##썻":5557,"##쎼":5558,"##떴":5559,"##듳":5560,"##컫":5561,"##쩝":5562,"##얀":5563,"##띨":5564,"##솜":5565,"##곽":5566,"##퓰":5567,"##놧":5568,"##뽁":5569,"##핱":5570,"##쌘":5571,"##뜸":5572,"##옄":5573,"##갬":5574,"##죤":5575,"##킴":5576,"##잣":5577,"##깅":5578,"##붉":5579,"##둠":5580,"##긌":5581,"##윗":5582,"##렺":5583,"##읃":5584,"##쏙":5585,"##뭍":5586,"##뎄":5587,"##ㅃ":5588,"##쏟":5589,"##죈":5590,"##쫓":5591,"##쭐":5592,"##갠":5593,"##궤":5594,"##삵":5595,"##쭘":5596,"##렛":5597,"##툭":5598,"##쉒":5599,"##짔":5600,"##댘":5601,"##맇":5602,"##찡":5603,"##꼮":5604,"##ㅒ":5605,"##늨":5606,"##멈":5607,"##ㅘ":5608,"##뿜":5609,"##몫":5610,"##깂":5611,"##멕":5612,"##볕":5613,"##괸":5614,"##쥘":5615,"##쳬":5616,"##넽":5617,"##챠":5618,"##쌤":5619,"##궹":5620,"##랒":5621,"##씁":5622,"##룬":5623,"##싣":5624,"##헸":5625,"##캣":5626,"##턔":5627,"##빅":5628,"##쉥":5629,"##앵":5630,"##쎈":5631,"##횟":5632,"##잿":5633,"##밷":5634,"##뺨":5635,"##잀":5636,"##횐":5637,"##읊":5638,"##빟":5639,"##훅":5640,"##홋":5641,"##뵹":5642,"##늦":5643,"##핥":5644,"##젰":5645,"##쨍":5646,"##겜":5647,"##쏠":5648,"##힠":5649,"##솤":5650,"##폴":5651,"##찻":5652,"##셑":5653,"##겡":5654,"##걑":5655,"##뜾":5656,"##슁":5657,"##쫙":5658,"##쬬":5659,"##줴":5660,"##샜":5661,"##맬":5662,"##얏":5663,"##뛸":5664,"##겔":5665,"##숵":5666,"##캠":5667,"##쇗":5668,"##짘":5669,"##덫":5670,"##뺑":5671,"##짧":5672,"##쒼":5673,"##띳":5674,"##먠":5675,"##맺":5676,"##몸":5677,"##샋":5678,"##셴":5679,"##켘":5680,"##핌":5681,"##랳":5682,"##늧":5683,"##팁":5684,"##냼":5685,"##꺠":5686,"##푹":5687,"##뺕":5688,"##곸":5689,"##띡":5690,"##떳":5691,"##슆":5692,"##펵":5693,"##짰":5694,"##팎":5695,"##똔":5696,"##퉷":5697,"##쌬":5698,"##먀":5699,"##봨":5700,"##띵":5701,"##맟":5702,"##밎":5703,"##뎐":5704,"##솰":5705,"##젔":5706,"##핬":5707,"##쉰":5708,"##욀":5709,"##빰":5710,"##햌":5711,"##랔":5712,"##솟":5713,"##큭":5714,"##킄":5715,"##앜":5716,"##꿎":5717,"##풒":5718,"##쑥":5719,"##늕":5720,"##댑":5721,"##뺠":5722,"##짇":5723,"##읆":5724,"##핮":5725,"##젋":5726,"##돳":5727,"##냑":5728,"##꿨":5729,"##잜":5730,"##낚":5731,"##꾤":5732,"##뱝":5733,"##뷸":5734,"##깆":5735,"##묶":5736,"##닺":5737,"##숮":5738,"##삑":5739,"##릂":5740,"##쑬":5741,"##긷":5742,"##떰":5743,"##긜":5744,"##힉":5745,"##궂":5746,"##춬":5747,"##굉":5748,"##긧":5749,"##켤":5750,"##잼":5751,"##졎":5752,"##씪":5753,"##늑":5754,"##좇":5755,"##땠":5756,"##뤌":5757,"##윘":5758,"##빕":5759,"##뗀":5760,"##녈":5761,"##넬":5762,"##밤":5763,"##옰":5764,"##뺴":5765,"##훌":5766,"##뻑":5767,"##줜":5768,"##돨":5769,"##듁":5770,"##넷":5771,"##끽":5772,"##놉":5773,"##솝":5774,"##띁":5775,"##휠":5776,"##닛":5777,"##쁫":5778,"##좁":5779,"##밢":5780,"##앖":5781,"##핧":5782,"##츰":5783,"##핝":5784,"##캉":5785,"##섕":5786,"##뱅":5787,"##셍":5788,"##뎌":5789,"##멤":5790,"##펼":5791,"##쪘":5792,"##쎗":5793,"##췬":5794,"##씼":5795,"##됟":5796,"##ㅕ":5797,"##쒝":5798,"##넺":5799,"##셥":5800,"##숍":5801,"##뢀":5802,"##휩":5803,"##큿":5804,"##뒁":5805,"##쐑":5806,"##캥":5807,"##꼿":5808,"##옂":5809,"##믁":5810,"##끋":5811,"##듦":5812,"##햄":5813,"##럻":5814,"##눕":5815,"##왝":5816,"##몀":5817,"##웓":5818,"##쥥":5819,"##겝":5820,"##됭":5821,"##맒":5822,"##읭":5823,"##뎨":5824,"##쥑":5825,"##낰":5826,"##얕":5827,"##빋":5828,"##믕":5829,"##몌":5830,"##벆":5831,"##꼐":5832,"##햅":5833,"##핰":5834,"##읻":5835,"##귿":5836,"##칫":5837,"##잰":5838,"##숄":5839,"##샅":5840,"##쟨":5841,"##쫏":5842,"##뉨":5843,"##쉔":5844,"##쌕":5845,"##풋":5846,"##짴":5847,"##헝":5848,"##쩨":5849,"##넴":5850,"##샙":5851,"##윷":5852,"##핫":5853,"##좨":5854,"##샼":5855,"##릐":5856,"##씻":5857,"##텃":5858,"##싀":5859,"##팟":5860,"##헥":5861,"##갃":5862,"##쨈":5863,"##탉":5864,"##썰":5865,"##샥":5866,"##웜":5867,"##뻡":5868,"##즁":5869,"##셐":5870,"##켱":5871,"##냇":5872,"##딧":5873,"##쿵":5874,"##콧":5875,"##댯":5876,"##훗":5877,"##읓":5878,"##넫":5879,"##렠":5880,"##빳":5881,"##쯜":5882,"##넜":5883,"##뫃":5884,"##튄":5885,"##츤":5886,"##읰":5887,"##븟":5888,"##녑":5889,"##핼":5890,"##멧":5891,"##켯":5892,"##흰":5893,"##훙":5894,"##셕":5895,"##맄":5896,"##뜀":5897,"##톈":5898,"##뵈":5899,"##쇤":5900,"##땃":5901,"##쫗":5902,"##엏":5903,"##콥":5904,"##딕":5905,"##톰":5906,"##뺘":5907,"##툰":5908,"##쯧":5909,"##깤":5910,"##냠":5911,"##옌":5912,"##캤":5913,"##롣":5914,"##ㅞ":5915,"##쭤":5916,"##헉":5917,"##쒀":5918,"##찹":5919,"##꼇":5920,"##짼":5921,"##톼":5922,"##붘":5923,"##빔":5924,"##짬":5925,"##녘":5926,"##쭵":5927,"##쨌":5928,"##럐":5929,"##섷":5930,"##췻":5931,"##딥":5932,"##껠":5933,"##밉":5934,"##풉":5935,"##뇸":5936,"##숩":5937,"##뺀":5938,"##뭣":5939,"##캍":5940,"##쥴":5941,"##즨":5942,"##얙":5943,"##캡":5944,"##찟":5945,"##킁":5946,"##싄":5947,"##섥":5948,"##늣":5949,"##뎈":5950,"##쌴":5951,"##밸":5952,"##좡":5953,"##뤀":5954,"##챌":5955,"##샎":5956,"##낂":5957,"##얂":5958,"##쁸":5959,"##읅":5960,"##돞":5961,"##뫄":5962,"##릏":5963,"##켸":5964,"##ㅄ":5965,"##쥤":5966,"##딹":5967,"##샾":5968,"##쐈":5969,"##샵":5970,"##밧":5971,"##츙":5972,"##∼":5973,"##굼":5974,"##빢":5975,"##흌":5976,"##짏":5977,"##옛":5978,"##엾":5979,"##붸":5980,"##찼":5981,"##튿":5982,"##듥":5983,"##퍄":5984,"##쪕":5985,"##욜":5986,"##룝":5987,"##욮":5988,"##뱰":5989,"##칵":5990,"##둉":5991,"##쉇":5992,"##뼛":5993,"##묠":5994,"##싞":5995,"##쯩":5996,"##룻":5997,"##펔":5998,"##펭":5999,"##쎙":6000,"##핟":6001,"##묭":6002,"##렣":6003,"##핏":6004,"##췃":6005,"##쎠":6006,"##팰":6007,"##쎆":6008,"##첸":6009,"##깹":6010,"##볘":6011,"##벜":6012,"##럤":6013,"##퇬":6014,"##덯":6015,"##꼅":6016,"##뻣":6017,"##힝":6018,"##흭":6019,"##팃":6020,"##잆":6021,"##튭":6022,"##챤":6023,"##옸":6024,"##컸":6025,"##믠":6026,"##붐":6027,"##땄":6028,"##닳":6029,"##틔":6030,"##폄":6031,"##깥":6032,"##쁨":6033,"##넛":6034,"##ㅢ":6035,"##봥":6036,"##닁":6037,"##뎁":6038,"##렼":6039,"##웩":6040,"##썸":6041,"##돟":6042,"##췄":6043,"##묜":6044,"##빻":6045,"##핞":6046,"##뵌":6047,"##붇":6048,"##썌":6049,"##밣":6050,"##읔":6051,"##쨓":6052,"##끅":6053,"##깄":6054,"##챽":6055,"##챕":6056,"##컥":6057,"##솥":6058,"##팝":6059,"##탭":6060,"##뉼":6061,"##츨":6062,"##끕":6063,"##켐":6064,"##넗":6065,"##쳑":6066,"##샡":6067,"##춣":6068,"##빗":6069,"##궜":6070,"##멱":6071,"##탸":6072,"##딲":6073,"##꿰":6074,"##곗":6075,"##땩":6076,"##챈":6077,"##죵":6078,"##늗":6079,"##꿑":6080,"##뵤":6081,"##퉈":6082,"##쯕":6083,"##좔":6084,"##팼":6085,"##씽":6086,"##앳":6087,"##끙":6088,"##힣":6089,"##몈":6090,"##쑵":6091,"##끤":6092,"##읗":6093,"##뱌":6094,"##븹":6095,"##쨉":6096,"##앚":6097,"##홰":6098,"##봘":6099,"##탯":6100,"##롶":6101,"##힜":6102,"##긘":6103,"##왼":6104,"##떈":6105,"##샆":6106,"##홈":6107,"##읩":6108,"##텽":6109,"##뒹":6110,"##졍":6111,"##샴":6112,"##헷":6113,"##붤":6114,"##돤":6115,"##뿠":6116,"##괌":6117,"##켬":6118,"##웡":6119,"##쑨":6120,"##닣":6121,"##밋":6122,"##뤡":6123,"##딛":6124,"##룽":6125,"##꽉":6126,"##롓":6127,"##뮌":6128,"##겋":6129,"##뵥":6130,"##뜅":6131,"##폼":6132,"##뗐":6133,"##챵":6134,"##킷":6135,"##욥":6136,"##맵":6137,"##눴":6138,"##쪾":6139,"##쨋":6140,"##몋":6141,"##믾":6142,"##띤":6143,"##씈":6144,"##뻭":6145,"##즤":6146,"##쥣":6147,"##엤":6148,"##녜":6149,"##벡":6150,"##딬":6151,"##읶":6152,"##촐":6153,"##튕":6154,"##첮":6155,"##뀨":6156,"##쬐":6157,"##폇":6158,"##뗌":6159,"##덱":6160,"##욌":6161,"##웁":6162,"##멉":6163,"##섺":6164,"##읏":6165,"##앀":6166,"##뻤":6167,"##썽":6168,"##덟":6169,"##쟙":6170,"##맷":6171,"##땤":6172,"##떱":6173,"##쭙":6174,"##냬":6175,"##닽":6176,"##쾨":6177,"##멩":6178,"##뚷":6179,"##촞":6180,"##댭":6181,"##쎅":6182,"##짹":6183,"##봬":6184,"##훰":6185,"##솽":6186,"##놰":6187,"##촘":6188,"##쿤":6189,"##볌":6190,"##숱":6191,"##샌":6192,"##셌":6193,"##꾀":6194,"##넢":6195,"##틉":6196,"##뭑":6197,"##묙":6198,"##뵜":6199,"##갮":6200,"##켄":6201,"##ㅟ":6202,"##딫":6203,"##깼":6204,"##킼":6205,"##롳":6206,"##볂":6207,"##땍":6208,"##뛴":6209,"##읜":6210,"##햭":6211,"##듸":6212,"##걩":6213,"##돵":6214,"##쵠":6215,"##앴":6216,"##잪":6217,"##탼":6218,"##팤":6219,"##벍":6220,"##뇜":6221,"##걵":6222,"##왘":6223,"##쮜":6224,"##셯":6225,"##앢":6226,"##찣":6227,"##둇":6228,"##쥔":6229,"##냘":6230,"##젹":6231,"##싡":6232,"##룔":6233,"##랗":6234,"##쉌":6235,"##쇡":6236,"##뵨":6237,"##뗏":6238,"##텻":6239,"##몪":6240,"##퍅":6241,"##싕":6242,"##텀":6243,"##갗":6244,"##햘":6245,"##눼":6246,"##쨀":6247,"##섣":6248,"##잴":6249,"##갛":6250,"##헗":6251,"##옙":6252,"##탰":6253,"##콴":6254,"##뉜":6255,"##돉":6256,"##둰":6257,"##핳":6258,"##괒":6259,"##긇":6260,"##맸":6261,"##쀼":6262,"##룐":6263,"##듫":6264,"##헙":6265,"##젱":6266,"##븨":6267,"##훠":6268,"##칯":6269,"##졉":6270,"##벋":6271,"##닊":6272,"##촟":6273,"##톳":6274,"##헀":6275,"##맀":6276,"##욘":6277,"##탹":6278,"##궄":6279,"##땈":6280,"##넖":6281,"##Z":6282,"##줙":6283,"##욺":6284,"##뭬":6285,"##맠":6286,"##봏":6287,"##콰":6288,"##댖":6289,"##궨":6290,"##뱁":6291,"##뱔":6292,"##곀":6293,"##엍":6294,"##춴":6295,"##쎘":6296,"##칞":6297,"##귱":6298,"##뼘":6299,"##잟":6300,"##댙":6301,"##뎆":6302,"##붗":6303,"##삤":6304,"##낏":6305,"##팹":6306,"##펫":6307,"##륨":6308,"##줔":6309,"##좉":6310,"##섳":6311,"##믐":6312,"##눞":6313,"##즹":6314,"##죳":6315,"##뮬":6316,"##뗄":6317,"##먜":6318,"##썹":6319,"##킥":6320,"##삻":6321,"##엢":6322,"##쉘":6323,"##잨":6324,"##뀜":6325,"##삔":6326,"##왠":6327,"##덍":6328,"##멷":6329,"##퀼":6330,"##콸":6331,"##궃":6332,"##냣":6333,"##갼":6334,"##앋":6335,"##욷":6336,"##뺙":6337,"##텡":6338,"##봦":6339,"##싵":6340,"##홱":6341,"##휸":6342,"##궛":6343,"##눤":6344,"##팥":6345,"##슺":6346,"##굵":6347,"##롼":6348,"##쎴":6349,"##퐐":6350,"##앛":6351,"##튽":6352,"##렆":6353,"##맍":6354,"##곘":6355,"##촤":6356,"##놤":6357,"##씯":6358,"##섴":6359,"##푠":6360,"##쓔":6361,"##굯":6362,"##첼":6363,"##칀":6364,"##몆":6365,"##맴":6366,"##샨":6367,"##꽥":6368,"##쌖":6369,"##멵":6370,"##쒹":6371,"##싺":6372,"##핡":6373,"##젺":6374,"##듴":6375,"##햣":6376,"##빩":6377,"##봫":6378,"##뛔":6379,"##찠":6380,"##좝":6381,"##낞":6382,"##촹":6383,"##몼":6384,"##듕":6385,"##밮":6386,"##퇙":6387,"##돜":6388,"##뭠":6389,"##뭤":6390,"##껫":6391,"##꿧":6392,"##멎":6393,"##껼":6394,"##삲":6395,"##컄":6396,"##춥":6397,"##롔":6398,"##봡":6399,"##귈":6400,"##쨰":6401,"##녆":6402,"##죴":6403,"##샬":6404,"##졳":6405,"##꾜":6406,"##긑":6407,"##렿":6408,"##앰":6409,"##헣":6410,"##앂":6411,"##쇜":6412,"##빴":6413,"##샐":6414,"##뾰":6415,"##굻":6416,"##뮴":6417,"##즣":6418,"##꿘":6419,"##쳘":6420,"##땋":6421,"##냏":6422,"##튐":6423,"##챡":6424,"##긕":6425,"##갉":6426,"##퀀":6427,"##궥":6428,"##랼":6429,"##ㅙ":6430,"##퇸":6431,"##읐":6432,"##쉨":6433,"##랓":6434,"##맣":6435,"##폽":6436,"##읿":6437,"##봍":6438,"##볶":6439,"##쾡":6440,"##쓤":6441,"##혛":6442,"##셒":6443,"##뗘":6444,"##햑":6445,"##젭":6446,"##몐":6447,"##쫩":6448,"##맼":6449,"##맗":6450,"##봑":6451,"##씅":6452,"##갹":6453,"##뺍":6454,"##좟":6455,"##쎔":6456,"##츈":6457,"##굥":6458,"##셱":6459,"##얇":6460,"##혝":6461,"##륻":6462,"##휙":6463,"##곹":6464,"##죡":6465,"##캭":6466,"##줒":6467,"##뼉":6468,"##뙨":6469,"##릌":6470,"##몁":6471,"##햠":6472,"##뷁":6473,"##쨜":6474,"##칮":6475,"##쥰":6476,"##쪙":6477,"##촀":6478,"##싴":6479,"##짅":6480,"##젇":6481,"##ㅀ":6482,"##맑":6483,"##틍":6484,"##맂":6485,"##딯":6486,"##띾":6487,"##쪅":6488,"##돛":6489,"##꾾":6490,"##뻬":6491,"##ㅚ":6492,"##뮐":6493,"##뜽":6494,"##쌰":6495,"##왑":6496,"##냌":6497,"##빱":6498,"##곺":6499,"##씝":6500,"##빶":6501,"##녇":6502,"##궙":6503,"##꼹":6504,"##듼":6505,"##쉣":6506,"##얠":6507,"##샸":6508,"##짳":6509,"##짒":6510,"##슉":6511,"##쏱":6512,"##욍":6513,"##챦":6514,"##놊":6515,"##샗":6516,"##셓":6517,"##옶":6518,"##럱":6519,"##룍":6520,"##멌":6521,"##럲":6522,"##삳":6523,"##씰":6524,"##닏":6525,"##겂":6526,"##땝":6527,"##븥":6528,"##옿":6529,"##맜":6530,"##뱜":6531,"##겎":6532,"##뷴":6533,"##닯":6534,"##럇":6535,"##덝":6536,"##삣":6537,"##핻":6538,"##짛":6539,"##숼":6540,"##읠":6541,"##뀠":6542,"##콌":6543,"##옘":6544,"##떧":6545,"##죙":6546,"##휀":6547,"##샟":6548,"##꿋":6549,"##낡":6550,"##뽝":6551,"##밠":6552,"##켕":6553,"##몹":6554,"##짙":6555,"##낍":6556,"##욋":6557,"##왱":6558,"##녛":6559,"##빧":6560,"##샄":6561,"##붖":6562,"##껸":6563,"##엦":6564,"##듐":6565,"##슾":6566,"##뱡":6567,"##긁":6568,"##귑":6569,"##볐":6570,"##섮":6571,"##깢":6572,"##캘":6573,"##햡":6574,"##긒":6575,"##혘":6576,"##뱄":6577,"##뫌":6578,"##핛":6579,"##쏳":6580,"##쬭":6581,"##쎃":6582,"##듈":6583,"##휭":6584,"##맆":6585,"##쿼":6586,"##읹":6587,"##잗":6588,"##빍":6589,"##헁":6590,"##핤":6591,"##랃":6592,"##틋":6593,"##쳦":6594,"##돱":6595,"##쿰":6596,"##깞":6597,"##켑":6598,"##샣":6599,"##쟉":6600,"##겯":6601,"##쳨":6602,"##깸":6603,"##뉩":6604,"##뷱":6605,"##곶":6606,"##됸":6607,"##쳥":6608,"##챗":6609,"##쥽":6610,"##툐":6611,"##샇":6612,"##쯍":6613,"##뚕":6614,"##졐":6615,"##헠":6616,"##쉅":6617,"##짯":6618,"##몯":6619,"##됑":6620,"##댂":6621,"##쌧":6622,"##됼":6623,"##웍":6624,"##텦":6625,"##왐":6626,"##덛":6627,"##룟":6628,"##귐":6629,"##탘":6630,"##먿":6631,"##뗴":6632,"##갴":6633,"##싥":6634,"##핓":6635,"##쌱":6636,"##쁀":6637,"##읁":6638,"##궸":6639,"##뎠":6640,"##뭥":6641,"##맊":6642,"##찴":6643,"##뎟":6644,"##렫":6645,"##듪":6646,"##콱":6647,"##뱐":6648,"##쨕":6649,"##퍀":6650,"##쟀":6651,"##뜹":6652,"##춍":6653,"##밯":6654,"##쉿":6655,"##옭":6656,"##껔":6657,"##웤":6658,"##놌":6659,"##볗":6660,"##렂":6661,"##잧":6662,"##뫠":6663,"##캅":6664,"##뉸":6665,"##윾":6666,"##댛":6667,"##욛":6668,"##캈":6669,"##칰":6670,"##잕":6671,"##앆":6672,"##늫":6673,"##냰":6674,"##뱓":6675,"##뵀":6676,"##푯":6677,"##뱍":6678,"##웂":6679,"##욪":6680,"##봙":6681,"##떢":6682,"##쏫":6683,"##퀸":6684,"##뤗":6685,"##젆":6686,"##뫼":6687,"##궇":6688,"##넙":6689,"##뺃":6690,"##훍":6691,"##밞":6692,"##괼":6693,"##슼":6694,"##췼":6695,"##줗":6696,"##렝":6697,"##텁":6698,"##쳌":6699,"##칲":6700,"##왰":6701,"##헡":6702,"##땔":6703,"##꿩":6704,"##늼":6705,"##듲":6706,"##뙌":6707,"##믓":6708,"##얺":6709,"##묹":6710,"##붑":6711,"##횬":6712,"##즛":6713,"##쪈":6714,"##쑴":6715,"##벧":6716,"##낔":6717,"##뗭":6718,"##녤":6719,"##윀":6720,"##솼":6721,"##싑":6722,"##얽":6723,"##렘":6724,"##싁":6725,"##씍":6726,"##죌":6727,"##똡":6728,"##똬":6729,"##뢋":6730,"##렄":6731,"##왤":6732,"##쯪":6733,"##즞":6734,"##릳":6735,"##겓":6736,"##봔":6737,"##뻉":6738,"##ㄻ":6739,"##좸":6740,"##룜":6741,"##쥭":6742,"##닚":6743,"##쩢":6744,"##뽂":6745,"##옜":6746,"##밐":6747,"##팓":6748,"##롹":6749,"##릔":6750,"##뺵":6751,"##놕":6752,"##읮":6753,"##빜":6754,"##얶":6755,"##춋":6756,"##럄":6757,"##삯":6758,"##쟂":6759,"##덪":6760,"##좈":6761,"##껙":6762,"##쟜":6763,"##뙈":6764,"##폿":6765,"##븡":6766,"##긐":6767,"##쩻":6768,"##쉈":6769,"##죸":6770,"##챔":6771,"##뻠":6772,"##똣":6773,"##폳":6774,"##텤":6775,"##윱":6776,"##끍":6777,"##앲":6778,"##ㄺ":6779,"##읒":6780,"##옇":6781,"##섁":6782,"##앝":6783,"##뎜":6784,"##걈":6785,"##덙":6786,"##멐":6787,"##륿":6788,"##겢":6789,"##끚":6790,"##녠":6791,"##벞":6792,"##꾐":6793,"##쎜":6794,"##릃":6795,"##삸":6796,"##촨":6797,"##풰":6798,"##쿳":6799,"##걊":6800,"##켝":6801,"##잫":6802,"##곷":6803,"##슛":6804,"##횢":6805,"##쇳":6806,"##꽇":6807,"##귁":6808,"##얷":6809,"##귓":6810,"##켁":6811,"##싪":6812,"##땬":6813,"##쫃":6814,"##ㄶ":6815,"##섲":6816,"##낵":6817,"##퓸":6818,"##귤":6819,"##뇐":6820,"##짪":6821,"##롴":6822,"##쟄":6823,"##댬":6824,"##뢸":6825,"##픕":6826,"##곙":6827,"##죕":6828,"##줠":6829,"##숸":6830,"##엋":6831,"##횅":6832,"##늡":6833,"##픗":6834,"##쌂":6835,"##짦":6836,"##쎽":6837,"##섵":6838,"##튬":6839,"##헴":6840,"##닻":6841,"##쎵":6842,"##껬":6843,"##쥠":6844,"##꽅":6845,"##쩟":6846,"##짋":6847,"##뱨":6848,"##챴":6849,"##롷":6850,"##롐":6851,"##껰":6852,"##쿸":6853,"##돚":6854,"##롲":6855,"##큽":6856,"##멨":6857,"##춯":6858,"##랮":6859,"##픙":6860,"##눜":6861,"##웄":6862,"##쁩":6863,"##싈":6864,"##눰":6865,"##큘":6866,"##젎":6867,"##줟":6868,"##덨":6869,"##쬽":6870,"##쐉":6871,"##윅":6872,"##슄":6873,"##읉":6874,"##붛":6875,"##췡":6876,"##숳":6877,"##깋":6878,"##붜":6879,"##갷":6880,"##틘":6881,"##섡":6882,"##퉜":6883,"##퇫":6884,"##힢":6885,"##됰":6886,"##띈":6887,"##뷍":6888,"##춧":6889,"##랋":6890,"##쭌":6891,"##잩":6892,"##츔":6893,"##윻":6894,"##졘":6895,"##븍":6896,"##웧":6897,"##룁":6898,"##섶":6899,"##햝":6900,"##푤":6901,"##뎍":6902,"##텈":6903,"##뭡":6904,"##툇":6905,"##뎔":6906,"##뚥":6907,"##굷":6908,"##쟣":6909,"##욨":6910,"##겍":6911,"##뮷":6912,"##먈":6913,"##뀬":6914,"##곪":6915,"##뷩":6916,"##츅":6917,"##밦":6918,"##똭":6919,"##짊":6920,"##얒":6921,"##싟":6922,"##뒬":6923,"##뗜":6924,"##벖":6925,"##힁":6926,"##섄":6927,"##쉫":6928,"##뢴":6929,"##흫":6930,"##롄":6931,"##쏸":6932,"##퇼":6933,"##앏":6934,"##흄":6935,"##숖":6936,"##꿜":6937,"##꽌":6938,"##탣":6939,"##튁":6940,"##갵":6941,"##뭊":6942,"##힞":6943,"##딀":6944,"##촣":6945,"##벴":6946,"##옺":6947,"##똠":6948,"##듨":6949,"##솢":6950,"##쵼":6951,"##됳":6952,"##헜":6953,"##칬":6954,"##줩":6955,"##릍":6956,"##씃":6957,"##륀":6958,"##앺":6959,"##삮":6960,"##턍":6961,"##봌":6962,"##뎇":6963,"##햊":6964,"##씐":6965,"##벱":6966,"##흼":6967,"##럾":6968,"##쑹":6969,"##붏":6970,"##샑":6971,"##뱩":6972,"##쫍":6973,"##곻":6974,"##겾":6975,"##엪":6976,"##퍌":6977,"##넸":6978,"##쳠":6979,"##쩧":6980,"##꿏":6981,"##즵":6982,"##졵":6983,"##탖":6984,"##뮝":6985,"##븰":6986,"##줱":6987,"##츱":6988,"##쌸":6989,"##껨":6990,"##팢":6991,"##꽄":6992,"##떽":6993,"##냫":6994,"##홤":6995,"##쇽":6996,"##힛":6997,"##켭":6998,"##읋":6999,"##뜡":7000,"##랲":7001,"##봊":7002,"##툈":7003,"##푀":7004,"##괁":7005,"##쫭":7006,"##옾":7007,"##좐":7008,"##챀":7009,"##옽":7010,"##겷":7011,"##씾":7012,"##싰":7013,"##땰":7014,"##옃":7015,"##뙤":7016,"##찧":7017,"##솎":7018,"##곈":7019,"##솅":7020,"##볭":7021,"##쐇":7022,"##벓":7023,"##죅":7024,"##팦":7025,"##뽚":7026,"##굔":7027,"##옼":7028,"##쒴":7029,"##듡":7030,"##쟐":7031,"##궝":7032,"##롕":7033,"##킅":7034,"##칟":7035,"##핗":7036,"##쳉":7037,"##쉙":7038,"##뒝":7039,"##랟":7040,"##쯘":7041,"##뎡":7042,"##왚":7043,"##칳":7044,"##앎":7045,"##꺔":7046,"##즥":7047,"##섫":7048,"##곌":7049,"##앍":7050,"##눗":7051,"##닾":7052,"##븽":7053,"##퐌":7054,"##씞":7055,"##쒞":7056,"##벚":7057,"##굮":7058,"##웑":7059,"##핽":7060,"##숀":7061,"##솓":7062,"##샞":7063,"##쏵":7064,"##틐":7065,"##턀":7066,"##섘":7067,"##캌":7068,"##괬":7069,"##벟":7070,"##낕":7071,"##핣":7072,"##옝":7073,"##궘":7074,"##땁":7075,"##펍":7076,"##끾":7077,"##쎌":7078,"##볔":7079,"##꺜":7080,"##뚀":7081,"##옐":7082,"##헿":7083,"##읙":7084,"##텬":7085,"##쾈":7086,"##홯":7087,"##죧":7088,"##걉":7089,"##웈":7090,"##첲":7091,"##똒":7092,"##죱":7093,"##돰":7094,"##봗":7095,"##뷘":7096,"##럳":7097,"##뜁":7098,"##뉠":7099,"##똟":7100,"##걋":7101,"##퐄":7102,"##핢":7103,"##곅":7104,"##홓":7105,"##뚸":7106,"##췽":7107,"##쎀":7108,"##뢈":7109,"##됵":7110,"##븜":7111,"##왹":7112,"##젅":7113,"##틑":7114,"##꿁":7115,"##닪":7116,"##묫":7117,"##셸":7118,"##밗":7119,"##긿":7120,"##꿴":7121,"##븀":7122,"##첳":7123,"##딋":7124,"##솬":7125,"##텆":7126,"##꺀":7127,"##븬":7128,"##뵐":7129,"##졨":7130,"##홐":7131,"##훓":7132,"##됗":7133,"##젘":7134,"##앐":7135,"##쪌":7136,"##궷":7137,"##쪗":7138,"##좄":7139,"##몱":7140,"##덷":7141,"##띱":7142,"##엫":7143,"##싦":7144,"##꺵":7145,"##쁑":7146,"##싮":7147,"##졈":7148,"##깰":7149,"##떙":7150,"##뇻":7151,"##뭈":7152,"##찎":7153,"##쫔":7154,"##꺊":7155,"##휵":7156,"##닡":7157,"##뚯":7158,"##쐨":7159,"##췰":7160,"##븝":7161,"##폑":7162,"##걲":7163,"##힏":7164,"##싐":7165,"##뜷":7166,"##텩":7167,"##퉥":7168,"##빫":7169,"##븉":7170,"##겦":7171,"##쓥":7172,"##잛":7173,"##횝":7174,"##뫁":7175,"##둊":7176,"##몄":7177,"##궍":7178,"##읫":7179,"##뭌":7180,"##닸":7181,"##륍":7182,"##슫":7183,"##듧":7184,"##뉭":7185,"##똴":7186,"##잍":7187,"##갆":7188,"##눃":7189,"##젛":7190,"##싳":7191,"##뚣":7192,"##좦":7193,"##뼤":7194,"##벛":7195,"##댠":7196,"##뱈":7197,"##킝":7198,"##갲":7199,"##뀝":7200,"##쎡":7201,"##얗":7202,"##삱":7203,"##괏":7204,"##꺅":7205,"##웆":7206,"##뢍":7207,"##걹":7208,"##왛":7209,"##휜":7210,"##쉉":7211,"##꽐":7212,"##몿":7213,"##췅":7214,"##쯰":7215,"##얖":7216,"##볽":7217,"##삷":7218,"##낒":7219,"##훻":7220,"##ㅝ":7221,"##훕":7222,"##챨":7223,"##괍":7224,"##팛":7225,"##빸":7226,"##쏩":7227,"##뫽":7228,"##좢":7229,"##챃":7230,"##촙":7231,"##뗑":7232,"##죰":7233,"##횻":7234,"##젙":7235,"##쟛":7236,"##찯":7237,"##갊":7238,"##깦":7239,"##킺":7240,"##뗳":7241,"##냤":7242,"##빆":7243,"##뻿":7244,"##빘":7245,"##띌":7246,"##쑌":7247,"##옻":7248,"##먁":7249,"##퇄":7250,"##잙":7251,"##댤":7252,"##닟":7253,"##뚠":7254,"##꽹":7255,"##닰":7256,"##겱":7257,"##얭":7258,"##즴":7259,"##젬":7260,"##핶":7261,"##첝":7262,"##곯":7263,"##낃":7264,"##쇙":7265,"##셎":7266,"##맃":7267,"##삾":7268,"##껒":7269,"##뼐":7270,"##웛":7271,"##앸":7272,"##숯":7273,"##솻":7274,"##졶":7275,"##흨":7276,"##갂":7277,"##깩":7278,"##펩":7279,"##읈":7280,"##뇰":7281,"##욹":7282,"##잋":7283,"##쉄":7284,"##죹":7285,"##툻":7286,"##엧":7287,"##띰":7288,"##썁":7289,"##겇":7290,"##땸":7291,"##둗":7292,"##먾":7293,"##먽":7294,"##냡":7295,"##푱":7296,"##곂":7297,"##빹":7298,"##쯥":7299,"##놂":7300,"##눳":7301,"##흣":7302,"##몡":7303,"##늟":7304,"##읖":7305,"##섻":7306,"##릊":7307,"##띃":7308,"##쵝":7309,"##밇":7310,"##둴":7311,"##렏":7312,"##섓":7313,"##엃":7314,"##퐝":7315,"##뫕":7316,"##굑":7317,"##튱":7318,"##쟹":7319,"##갅":7320,"##쩠":7321,"##줕":7322,"##꼉":7323,"##왴":7324,"##덬":7325,"##쉡":7326,"##끛":7327,"##줐":7328,"##뮥":7329,"##붔":7330,"##븩":7331,"##캇":7332,"##햟":7333,"##됒":7334,"##셁":7335,"##뭨":7336,"##풜":7337,"##곬":7338,"##엗":7339,"##홬":7340,"##쪔":7341,"##겥":7342,"##겊":7343,"##숏":7344,"##튓":7345,"##뀟":7346,"##햛":7347,"##뻴":7348,"##쟞":7349,"##훑":7350,"##옯":7351,"##씺":7352,"##춫":7353,"##쩄":7354,"##쳫":7355,"##틜":7356,"##콬":7357,"##랕":7358,"##밚":7359,"##큑":7360,"##퀙":7361,"##퐉":7362,"##솧":7363,"##놎":7364,"##셬":7365,"##젗":7366,"##뫈":7367,"##뤂":7368,"##쵀":7369,"##먆":7370,"##뷀":7371,"##윸":7372,"##땽":7373,"##츳":7374,"##웝":7375,"##텰":7376,"##롁":7377,"##쎳":7378,"##뒺":7379,"##웋":7380,"##슭":7381,"##쑝":7382,"##낧":7383,"##솦":7384,"##쳈":7385,"##뿕":7386,"##굣":7387,"##뿝":7388,"##턕":7389,"##웒":7390,"##곃":7391,"##딍":7392,"##쉓":7393,"##뗗":7394,"##쓈":7395,"##뵝":7396,"##뙇":7397,"##쎕":7398,"##탙":7399,"##쭀":7400,"##읨":7401,"##딷":7402,"##춉":7403,"##췐":7404,"##뺭":7405,"##끘":7406,"##칝":7407,"##켷":7408,"##뙷":7409,"##뙛":7410,"##틁":7411,"##꾺":7412,"##뺼":7413,"##꿃":7414,"##빝":7415,"##렪":7416,"##꿐":7417,"##붱":7418,"##쎤":7419,"##팧":7420,"##뉍":7421,"##엳":7422,"##돴":7423,"##짲":7424,"##혖":7425,"##텟":7426,"##껗":7427,"##볻":7428,"##붹":7429,"##쫴":7430,"##얾":7431,"##핲":7432,"##싲":7433,"##퀭":7434,"##휑":7435,"##뗠":7436,"##밓":7437,"##젿":7438,"##폠":7439,"##퓡":7440,"##젲":7441,"##꺌":7442,"##붠":7443,"##볒":7444,"##옪":7445,"##큉":7446,"##튑":7447,"##녴":7448,"##킸":7449,"##컈":7450,"##눚":7451,"##뻰":7452,"##퉸":7453,"##붊":7454,"##엒":7455,"##냊":7456,"##랅":7457,"##긓":7458,"##놬":7459,"##뮹":7460,"##쫠":7461,"##벘":7462,"##좜":7463,"##뇠":7464,"##뻇":7465,"##픠":7466,"##떯":7467,"##죔":7468,"##뼜":7469,"##꾿":7470,"##낗":7471,"##첞":7472,"##눨":7473,"##캆":7474,"##낲":7475,"##꼤":7476,"##뽱":7477,"##뀰":7478,"##녿":7479,"##벹":7480,"##갣":7481,"##뷜":7482,"##띔":7483,"##젉":7484,"##싿":7485,"##륩":7486,"##솄":7487,"##좠":7488,"##솩":7489,"##씉":7490,"##뻄":7491,"##읇":7492,"##멏":7493,"##컁":7494,"##뤔":7495,"##됮":7496,"##춌":7497,"##빬":7498,"##쐴":7499,"##짂":7500,"##뽖":7501,"##졲":7502,"##칑":7503,"##씮":7504,"##댝":7505,"##줳":7506,"##풑":7507,"##챼":7508,"##껵":7509,"##짥":7510,"##쌥":7511,"##괙":7512,"##됻":7513,"##쌜":7514,"##뫙":7515,"##녅":7516,"##쎟":7517,"##먖":7518,"##뮙":7519,"##핪":7520,"##싓":7521,"##콫":7522,"##뮛":7523,"##앧":7524,"##쓋":7525,"##돐":7526,"##촴":7527,"##셲":7528,"##뎊":7529,"##갋":7530,"##ㄳ":7531,"##둟":7532,"##볃":7533,"##횄":7534,"##죨":7535,"##벎":7536,"##벝":7537,"##캪":7538,"##줰":7539,"##쩃":7540,"##쐰":7541,"##쬑":7542,"##꺆":7543,"##볜":7544,"##옅":7545,"##괵":7546,"##댚":7547,"##튠":7548,"##쬠":7549,"##쨎":7550,"##잂":7551,"##혚":7552,"##칄":7553,"##벰":7554,"##겣":7555,"##볠":7556,"##뒵":7557,"##췁":7558,"##닲":7559,"##븁":7560,"##랂":7561,"##귾":7562,"##찱":7563,"##쓩":7564,"##뵁":7565,"##쏀":7566,"##꺙":7567,"##촏":7568,"##쯨":7569,"##픞":7570,"##믽":7571,"##홨":7572,"##홣":7573,"##씊":7574,"##긂":7575,"##붋":7576,"##쒑":7577,"##닶":7578,"##쭸":7579,"##뜿":7580,"##늇":7581,"##빯":7582,"##큨":7583,"##짫":7584,"##솏":7585,"##톻":7586,"##튤":7587,"##씋":7588,"##쭛":7589,"##잒":7590,"##뼌":7591,"##뗬":7592,"##덭":7593,"##팕":7594,"##볹":7595,"##듩":7596,"##폥":7597,"##몴":7598,"##벏":7599,"##똫":7600,"##혙":7601,"##밙":7602,"##맢":7603,"##뇯":7604,"##갢":7605,"##돡":7606,"##솃":7607,"##쳧":7608,"##쎾":7609,"##쐒":7610,"##쀄":7611,"##풔":7612,"##젏":7613,"##죷":7614,"##굡":7615,"##릫":7616,"##귕":7617,"##퉌":7618,"##큔":7619,"##묀":7620,"##앃":7621,"##붅":7622,"##쟆":7623,"##넎":7624,"##햿":7625,"##벸":7626,"##뮜":7627,"##욿":7628,"##쾍":7629,"##짌":7630,"##헑":7631,"##쫐":7632,"##쇣":7633,"##췩":7634,"##맫":7635,"##픅":7636,"##씷":7637,"##솈":7638,"##놥":7639,"##댇":7640,"##딝":7641,"##홛":7642,"##띟":7643,"##궅":7644,"##헕":7645,"##꿥":7646,"##썍":7647,"##뗙":7648,"##걌":7649,"##붂":7650,"##톹":7651,"##꿱":7652,"##혠":7653,"##섦":7654,"##끨":7655,"##쿱":7656,"##쉾":7657,"##얋":7658,"##쀍":7659,"##넞":7660,"##퓽":7661,"##쮠":7662,"##잚":7663,"##뺸":7664,"##큥":7665,"##혱":7666,"##줃":7667,"##깧":7668,"##찷":7669,"##훝":7670,"##쒔":7671,"##첟":7672,"##륾":7673,"##댗":7674,"##씦":7675,"##씳":7676,"##눍":7677,"##먺":7678,"##맽":7679,"##뚬":7680,"##쮹":7681,"##컽":7682,"##뱸":7683,"##쐽":7684,"##즬":7685,"##쨥":7686,"##웽":7687,"##숔":7688,"##뇩":7689,"##뽓":7690,"##챰":7691,"##짞":7692,"##뼁":7693,"##읪":7694,"##퓬":7695,"##캑":7696,"##밫":7697,"##컼":7698,"##춈":7699,"##찤":7700,"##녂":7701,"##떦":7702,"##좽":7703,"##껃":7704,"##훽":7705,"##뱆":7706,"##븃":7707,"##줸":7708,"##뀡":7709,"##괂":7710,"##윔":7711,"##갞":7712,"##쏚":7713,"##긤":7714,"##웗":7715,"##풐":7716,"##읾":7717,"##얨":7718,"##앁":7719,"##몣":7720,"##뢉":7721,"##쒰":7722,"##싧":7723,"##슿":7724,"##썡":7725,"##럅":7726,"##뚁":7727,"##쭞":7728,"##릠":7729,"##옉":7730,"##솹":7731,"##좂":7732,"##핦":7733,"##뢱":7734,"##챱":7735,"##뢌":7736,"##킫":7737,"##톔":7738,"##쟘":7739,"##떪":7740,"##퉽":7741,"##탇":7742,"##듹":7743,"##쯫":7744,"##쬼":7745,"##푝":7746,"##묽":7747,"##꾕":7748,"##볎":7749,"##쓒":7750,"##낛":7751,"##뙜":7752,"##놏":7753,"##쵯":7754,"##휨":7755,"##닩":7756,"##쭹":7757,"##뺫":7758,"##깕":7759,"##픵":7760,"##먱":7761,"##쨘":7762,"##뺒":7763,"##륄":7764,"##헼":7765,"##쩦":7766,"##좊":7767,"##놑":7768,"##좬":7769,"##쇟":7770,"##췍":7771,"##폅":7772,"##춠":7773,"##섂":7774,"##썎":7775,"##뇀":7776,"##뭅":7777,"##뱽":7778,"##죻":7779,"##꼳":7780,"##뻩":7781,"##늴":7782,"##잢":7783,"##뒙":7784,"##퉛":7785,"##횩":7786,"##큲":7787,"##흽":7788,"##똗":7789,"##꿂":7790,"##썀":7791,"##휄":7792,"##샕":7793,"##딮":7794,"##읂":7795,"##놜":7796,"##횤":7797,"##뒥":7798,"##낝":7799,"##붌":7800,"##뎽":7801,"##윜":7802,"##뵘":7803,"##덞":7804,"##붃":7805,"##뵵":7806,"##욵":7807,"##얿":7808,"##먗":7809,"##뜼":7810,"##됔":7811,"##웉":7812,"##휏":7813,"##뗔":7814,"##멫":7815,"##얊":7816,"##촥":7817,"##믇":7818,"##뫘":7819,"##맔":7820,"##엷":7821,"##짉":7822,"##싾":7823,"##넏":7824,"##첢":7825,"##쬿":7826,"##몊":7827,"##짮":7828,"##쵱":7829,"##봟":7830,"##꾁":7831,"##귯":7832,"##훵":7833,"##뙥":7834,"##쩖":7835,"##뀩":7836,"##훱":7837,"##먛":7838,"##윶":7839,"##넑":7840,"##엯":7841,"##폣":7842,"##횰":7843,"##넊":7844,"##쉤":7845,"##줓":7846,"##펰":7847,"##끜":7848,"##졑":7849,"##풓":7850,"##죚":7851,"##멥":7852,"##햰":7853,"##똨":7854,"##맻":7855,"##웸":7856,"##젣":7857,"##칡":7858,"##껕":7859,"##퇵":7860,"##촵":7861,"##뛍":7862,"##굫":7863,"##걘":7864,"##붍":7865,"##엵":7866,"##볖":7867,"##찓":7868,"##갏":7869,"##뵬":7870,"##썯":7871,"##뽠":7872,"##훜":7873,"##쮭":7874,"##훳":7875,"##뗍":7876,"##쁭":7877,"##젚":7878,"##욲":7879,"##얉":7880,"##졏":7881,"##첯":7882,"##묷":7883,"##찦":7884,"##붚":7885,"##즂":7886,"##햩":7887,"##쥿":7888,"##훡":7889,"##빏":7890,"##뎝":7891,"##쓀":7892,"##퉵":7893,"##뇟":7894,"##쪚":7895,"##졻":7896,"##쒭":7897,"##볾":7898,"##꼻":7899,"##쇵":7900,"##꽊":7901,"##꿕":7902,"##뒞":7903,"##묏":7904,"##뾀":7905,"##롈":7906,"##훟":7907,"##춪":7908,"##쮝":7909,"##쩬":7910,"##뛧":7911,"##늚":7912,"##퓹":7913,"##쯉":7914,"##갶":7915,"##끟":7916,"##쾐":7917,"##쁙":7918,"##흴":7919,"##휫":7920,"##쭥":7921,"##훯":7922,"##홑":7923,"##줼":7924,"##웻":7925,"##떫":7926,"##텊":7927,"##쵹":7928,"##뾱":7929,"##꺕":7930,"##쀅":7931,"##뇝":7932,"##퐛":7933,"##쵤":7934,"##몉":7935,"##쁄":7936,"##쭟":7937,"##뭫":7938,"##넔":7939,"##혤":7940,"##옠":7941,"##흝":7942,"##껶":7943,"##덋":7944,"##틅":7945,"##묾":7946,"##뇁":7947,"##뒛":7948,"##뻙":7949,"##삺":7950,"##놁":7951,"##뜱":7952,"##뭰":7953,"##뢐":7954,"##줯":7955,"##첰":7956,"##띻":7957,"##뻈":7958,"##땧":7959,"##췟":7960,"##왯":7961,"##쟬":7962,"##풱":7963,"##훚":7964,"##촰":7965,"##딞":7966,"##쌑":7967,"##싻":7968,"##꽦":7969,"##햙":7970,"##얫":7971,"##둋":7972,"##으로":7973,"##하는":7974,"##들이":7975,"##니다":7976,"##하고":7977,"ㅋㅋ":7978,"##에서":7979,"##는데":7980,"국민":7981,"##다고":7982,"아니":7983,"##이다":7984,"##들은":7985,"사람":7986,"##라고":7987,"문재":7988,"나라":7989,"##는거":7990,"##으면":7991,"우리":7992,"##하면":7993,"##해서":7994,"이런":7995,"생각":7996,"진짜":7997,"일본":7998,"##이라":7999,"문재인":8000,"##다는":8001,"하는":8002,"##통령":8003,"##하지":8004,"##까지":8005,"중국":8006,"##세요":8007,"##니까":8008,"지금":8009,"##나라":8010,"##하게":8011,"##렇게":8012,"##이나":8013,"##리고":8014,"##한다":8015,"##대로":8016,"한국":8017,"##하다":8018,"민주":8019,"##ㅋㅋ":8020,"대통령":8021,"그냥":8022,"##지만":8023,"대한":8024,"##인데":8025,"##에게":8026,"##해라":8027,"##네요":8028,"##해야":8029,"정치":8030,"조국":8031,"ㅋㅋㅋ":8032,"정부":8033,"북한":8034,"##한테":8035,"인간":8036,"##구나":8037,"##민국":8038,"있는":8039,"##면서":8040,"##레기":8041,"이제":8042,"##이고":8043,"##같은":8044,"##부터":8045,"##00":8046,"문제":8047,"하고":8048,"대한민국":8049,"그래":8050,"##보다":8051,"아닌":8052,"정신":8053,"##습니다":8054,"##는게":8055,"##라도":8056,"정말":8057,"모르":8058,"민주당":8059,"##들어":8060,"##사람":8061,"그런":8062,"무슨":8063,"정권":8064,"##합니다":8065,"##야지":8066,"##려고":8067,"그러":8068,"같은":8069,"##주의":8070,"##이지":8071,"너무":8072,"검찰":8073,"##들아":8074,"미국":8075,"##인가":8076,"##적으로":8077,"##으니":8078,"세금":8079,"##입니다":8080,"##이냐":8081,"##겠다":8082,"지지":8083,"##소리":8084,"하나":8085,"기사":8086,"저런":8087,"댓글":8088,"##로나":8089,"##어서":8090,"자기":8091,"##처럼":8092,"경제":8093,"##리는":8094,"##것도":8095,"##들의":8096,"하지":8097,"아무":8098,"코로나":8099,"##이가":8100,"없는":8101,"##하네":8102,"문재앙":8103,"##적인":8104,"##자가":8105,"##들을":8106,"##이네":8107,"이게":8108,"##지고":8109,"얼마":8110,"##는지":8111,"우리나라":8112,"##인이":8113,"국가":8114,"##겠지":8115,"##들도":8116,"제발":8117,"##라는":8118,"그리고":8119,"##아서":8120,"쓰레기":8121,"안되":8122,"어떻":8123,"그렇게":8124,"##말고":8125,"어디":8126,"##문에":8127,"##이라고":8128,"좌파":8129,"있다":8130,"잘못":8131,"들어":8132,"당신":8133,"한다":8134,"아직":8135,"누가":8136,"없다":8137,"##잖아":8138,"다른":8139,"어떻게":8140,"##지도":8141,"##가리":8142,"##하냐":8143,"아니라":8144,"나오":8145,"##정부":8146,"##이야":8147,"##정권":8148,"##갱이":8149,"그럼":8150,"##의원":8151,"##놓고":8152,"##해도":8153,"##인지":8154,"##다가":8155,"##자들":8156,"##없는":8157,"많이":8158,"##하나":8159,"이렇게":8160,"##어야":8161,"국회":8162,"그만":8163,"조선":8164,"##한당":8165,"자유":8166,"사회":8167,"##가는":8168,"##한거":8169,"##시다":8170,"##하는거":8171,"##더니":8172,"이상":8173,"##있는":8174,"언론":8175,"얼마나":8176,"##지는":8177,"소리":8178,"##시키":8179,"##에는":8180,"자한당":8181,"##근혜":8182,"이번":8183,"##어요":8184,"국민들":8185,"##거리":8186,"ㅉㅉ":8187,"피해":8188,"##이는":8189,"서울":8190,"공산":8191,"사람이":8192,"##을까":8193,"##기는":8194,"살아":8195,"##어도":8196,"##국민":8197,"빨갱이":8198,"대깨":8199,"보고":8200,"##보고":8201,"세상":8202,"##는다":8203,"제대로":8204,"수사":8205,"아니고":8206,"거짓":8207,"##돼지":8208,"##스크":8209,"##된다":8210,"수준":8211,"##천지":8212,"##자는":8213,"해야":8214,"##하는데":8215,"필요":8216,"##봐라":8217,"나라가":8218,"ㅎㅎ":8219,"##었다":8220,"정의":8221,"친일":8222,"##에도":8223,"만들":8224,"##겠네":8225,"아이":8226,"##가서":8227,"보수":8228,"10":8229,"모든":8230,"##이면":8231,"##주고":8232,"##는건":8233,"##나요":8234,"사실":8235,"이미":8236,"이해":8237,"만들어":8238,"##정도":8239,"박근혜":8240,"내가":8241,"모두":8242,"##구만":8243,"다시":8244,"선거":8245,"말고":8246,"계속":8247,"하면":8248,"근데":8249,"여기":8250,"아닌가":8251,"니들":8252,"미친":8253,"누구":8254,"니가":8255,"대깨문":8256,"돌아":8257,"선동":8258,"20":8259,"##마라":8260,"##정은":8261,"이건":8262,"좋은":8263,"마스크":8264,"##했다":8265,"##와대":8266,"##가지":8267,"조사":8268,"좋아":8269,"##하기":8270,"아직도":8271,"##리가":8272,"##없이":8273,"해라":8274,"##아야":8275,"책임":8276,"##이라도":8277,"신천지":8278,"사람들":8279,"보면":8280,"##하라":8281,"말이":8282,"##러운":8283,"이유":8284,"언제":8285,"##시켜":8286,"아주":8287,"##다니":8288,"##하니":8289,"한번":8290,"탄핵":8291,"역시":8292,"##같이":8293,"한심":8294,"개돼지":8295,"여자":8296,"범죄":8297,"많은":8298,"청와대":8299,"##하시":8300,"##아니":8301,"당연":8302,"##만원":8303,"그래서":8304,"##이랑":8305,"그게":8306,"알고":8307,"경찰":8308,"##텐데":8309,"##하자":8310,"##하면서":8311,"##기를":8312,"조작":8313,"##어나":8314,"자식":8315,"##거다":8316,"##어라":8317,"##없다":8318,"##것이":8319,"부모":8320,"##기에":8321,"무능":8322,"##먹고":8323,"##인들":8324,"국민이":8325,"바로":8326,"##보면":8327,"##새끼":8328,"##던데":8329,"그렇":8330,"100":8331,"이러":8332,"결국":8333,"##사가":8334,"##한다고":8335,"국민의":8336,"국회의원":8337,"##이니":8338,"##수가":8339,"절대":8340,"뭐가":8341,"##하는게":8342,"니들이":8343,"재앙":8344,"##무원":8345,"##해주":8346,"좌빨":8347,"국민을":8348,"국민들이":8349,"##아라":8350,"##더라":8351,"##성이":8352,"##것들":8353,"빨리":8354,"없어":8355,"아베":8356,"가족":8357,"##치고":8358,"##거지":8359,"##지않":8360,"##당이":8361,"##와서":8362,"때문에":8363,"더불":8364,"사기":8365,"위해":8366,"완전":8367,"##중에":8368,"자신":8369,"##는거지":8370,"아니다":8371,"새끼":8372,"기업":8373,"권력":8374,"어떤":8375,"떨어":8376,"##겠냐":8377,"요즘":8378,"장관":8379,"반대":8380,"##대체":8381,"##되는":8382,"의사":8383,"세계":8384,"정도":8385,"있는데":8386,"같이":8387,"인정":8388,"나라를":8389,"##이란":8390,"정책":8391,"##기가":8392,"대구":8393,"##동안":8394,"##시민":8395,"##지말고":8396,"##거나":8397,"기자":8398,"너희":8399,"##고있":8400,"상황":8401,"도대체":8402,"먼저":8403,"지들":8404,"전라도":8405,"공무원":8406,"가짜":8407,"##려라":8408,"이거":8409,"##전에":8410,"김정은":8411,"##이상":8412,"##주는":8413,"##시고":8414,"이용":8415,"없고":8416,"##체가":8417,"적폐":8418,"##치는":8419,"독재":8420,"##이라는":8421,"처벌":8422,"합니다":8423,"##사는":8424,"다음":8425,"마음":8426,"거짓말":8427,"##스럽":8428,"있었":8429,"보내":8430,"전부":8431,"사과":8432,"사람들이":8433,"토착":8434,"##기업":8435,"받아":8436,"##장이":8437,"시작":8438,"##때문에":8439,"##ㅋㅋㅋ":8440,"##동산":8441,"아님":8442,"##놈들":8443,"여론":8444,"##조건":8445,"##다면":8446,"##건데":8447,"구속":8448,"##대통령":8449,"아니면":8450,"##일보":8451,"##시간":8452,"보여":8453,"##장관":8454,"그래도":8455,"세월":8456,"##하여":8457,"지원":8458,"##지가":8459,"어느":8460,"윤석":8461,"이젠":8462,"부동산":8463,"검사":8464,"시키":8465,"##자리":8466,"총선":8467,"##라이":8468,"현실":8469,"무조건":8470,"정상":8471,"어쩌":8472,"##기도":8473,"대단":8474,"본인":8475,"##스로":8476,"어찌":8477,"걱정":8478,"##하세요":8479,"##되면":8480,"##것이다":8481,"교회":8482,"못한":8483,"##들에게":8484,"얘기":8485,"##려는":8486,"##가고":8487,"더불어":8488,"그걸":8489,"##하며":8490,"##건가":8491,"사고":8492,"응원":8493,"시간":8494,"얼굴":8495,"##주세요":8496,"앞으로":8497,"남자":8498,"그리":8499,"30":8500,"되는":8501,"황교":8502,"##해야지":8503,"하는데":8504,"외국":8505,"집단":8506,"##리지":8507,"힘들":8508,"머리":8509,"##왜구":8510,"세월호":8511,"있을":8512,"##수있":8513,"해도":8514,"행동":8515,"엄청":8516,"##리면":8517,"모르는":8518,"내려":8519,"문죄":8520,"안보":8521,"##당은":8522,"나도":8523,"뉴스":8524,"##밖에":8525,"##했는데":8526,"하루":8527,"삼성":8528,"가능":8529,"지지율":8530,"##려면":8531,"##한데":8532,"지역":8533,"사건":8534,"것이":8535,"나쁜":8536,"기레기":8537,"##운동":8538,"서민":8539,"아무리":8540,"개인":8541,"##보니":8542,"##개혁":8543,"다니":8544,"니네":8545,"가장":8546,"##경원":8547,"이재":8548,"중요":8549,"시민":8550,"하는거":8551,"##머니":8552,"##국가":8553,"##생각":8554,"ㅠㅠ":8555,"난리":8556,"법무":8557,"아니냐":8558,"가지고":8559,"##것들이":8560,"전세":8561,"것이다":8562,"##뉴스":8563,"대통령이":8564,"##남불":8565,"저렇게":8566,"##도록":8567,"ㅡㅡ":8568,"일반":8569,"gt":8570,"먹고":8571,"나경원":8572,"##건지":8573,"##로남불":8574,"대가리":8575,"사이":8576,"##려서":8577,"##하겠":8578,"##민주":8579,"##라지":8580,"##대가":8581,"달창":8582,"##끼리":8583,"역사":8584,"##기고":8585,"18":8586,"##대는":8587,"##되고":8588,"진정":8589,"##조사":8590,"##력이":8591,"정부가":8592,"입국":8593,"##인간":8594,"##았다":8595,"##들만":8596,"해서":8597,"##었는데":8598,"살인":8599,"방송":8600,"최고":8601,"##아먹":8602,"##받고":8603,"##아요":8604,"토착왜구":8605,"오늘":8606,"같다":8607,"미래":8608,"##하던":8609,"##드는":8610,"만든":8611,"##르고":8612,"##럼프":8613,"부정":8614,"증거":8615,"없이":8616,"문재인이":8617,"우리가":8618,"50":8619,"##자들이":8620,"부끄":8621,"따라":8622,"##수도":8623,"불법":8624,"이나라":8625,"지랄":8626,"##대가리":8627,"##자를":8628,"##거야":8629,"이야":8630,"이래":8631,"집값":8632,"나는":8633,"윤석열":8634,"촛불":8635,"무식":8636,"##간다":8637,"##시장":8638,"공수":8639,"##한게":8640,"##나오":8641,"된다":8642,"##명이":8643,"##나서":8644,"##내고":8645,"해결":8646,"트럼프":8647,"##미애":8648,"관심":8649,"더러운":8650,"##난다":8651,"##에서는":8652,"양심":8653,"나온":8654,"가서":8655,"같은데":8656,"외교":8657,"##들고":8658,"##는거야":8659,"맞는":8660,"##기사":8661,"있나":8662,"##을때":8663,"사는":8664,"##드시":8665,"##라면":8666,"전쟁":8667,"##마다":8668,"가만":8669,"있네":8670,"##심히":8671,"애들":8672,"##리를":8673,"공수처":8674,"화이":8675,"불쌍":8676,"있으면":8677,"##일이":8678,"공개":8679,"의료":8680,"공정":8681,"인권":8682,"지켜":8683,"개소리":8684,"일베":8685,"못하는":8686,"내로남불":8687,"여성":8688,"##봐야":8689,"교육":8690,"종교":8691,"##대한":8692,"그런데":8693,"진보":8694,"##이러":8695,"안되는":8696,"개혁":8697,"정신차":8698,"확실":8699,"제일":8700,"넘어":8701,"스스로":8702,"##인은":8703,"거지":8704,"월급":8705,"사람은":8706,"뻔뻔":8707,"##지마라":8708,"##지면":8709,"위한":8710,"조용":8711,"##이들":8712,"추미애":8713,"##프로":8714,"없애":8715,"팩트":8716,"##대표":8717,"말을":8718,"진실":8719,"사형":8720,"##것은":8721,"멍청":8722,"친일파":8723,"황교안":8724,"있고":8725,"##원이":8726,"##란다":8727,"##스트":8728,"##할때":8729,"바보":8730,"열심히":8731,"시켜":8732,"않는":8733,"결과":8734,"확진":8735,"어디서":8736,"##차피":8737,"감사":8738,"공부":8739,"##라서":8740,"당장":8741,"##선거":8742,"반성":8743,"인생":8744,"솔직":8745,"##것을":8746,"해외":8747,"다들":8748,"이름":8749,"문제가":8750,"국민들은":8751,"문빠":8752,"##보네":8753,"지나":8754,"어차피":8755,"그때":8756,"##마디":8757,"##이버":8758,"##던가":8759,"여러":8760,"무시":8761,"##파트":8762,"매국":8763,"있어":8764,"시장":8765,"중국인":8766,"안타":8767,"##해보":8768,"##식이":8769,"돼지":8770,"##있다":8771,"백신":8772,"밖에":8773,"알바":8774,"##명박":8775,"##영업":8776,"##려야":8777,"##국에":8778,"군대":8779,"##진다":8780,"##아치":8781,"##했다고":8782,"##으면서":8783,"밝혀":8784,"않고":8785,"너네":8786,"평생":8787,"학교":8788,"잡아":8789,"민주주의":8790,"##부분":8791,"인간이":8792,"##문제":8793,"공산당":8794,"정신병":8795,"말도":8796,"##경제":8797,"##아닌":8798,"##정신":8799,"않은":8800,"##조작":8801,"투표":8802,"거기":8803,"처음":8804,"무서":8805,"##라리":8806,"것도":8807,"반드시":8808,"##만큼":8809,"조금":8810,"##는거다":8811,"##겠지만":8812,"해야지":8813,"하네":8814,"##린다":8815,"일본이":8816,"##워서":8817,"우한":8818,"##가요":8819,"보다":8820,"##적이":8821,"이명박":8822,"##단체":8823,"치료":8824,"##상이":8825,"##할수":8826,"못하고":8827,"노무":8828,"대학":8829,"##금지":8830,"않았":8831,"대체":8832,"공산주의":8833,"하면서":8834,"궁금":8835,"##거라":8836,"##들과":8837,"간첩":8838,"##져라":8839,"##철수":8840,"운동":8841,"있으니":8842,"안하고":8843,"하시":8844,"그러니":8845,"##겁니다":8846,"##ㅡㅡ":8847,"##고싶":8848,"올라":8849,"나가":8850,"##지지":8851,"안된다":8852,"것은":8853,"대표":8854,"뭐냐":8855,"짱깨":8856,"당연히":8857,"있냐":8858,"인간들":8859,"검찰개혁":8860,"유시민":8861,"어린":8862,"##져야":8863,"차라리":8864,"기본":8865,"사퇴":8866,"##이러스":8867,"의원":8868,"##에서도":8869,"나이":8870,"자살":8871,"능력":8872,"마라":8873,"##시대":8874,"##기로":8875,"보니":8876,"자영업":8877,"##나는":8878,"반일":8879,"과거":8880,"어려":8881,"원래":8882,"서로":8883,"네이버":8884,"모습":8885,"사진":8886,"알아":8887,"##같다":8888,"봐라":8889,"##랍니다":8890,"받고":8891,"법무부":8892,"##수준":8893,"##지요":8894,"혼자":8895,"생각이":8896,"##구요":8897,"##은거":8898,"아는":8899,"모르고":8900,"##다는게":8901,"정치인":8902,"방역":8903,"솔직히":8904,"##거든":8905,"노무현":8906,"조국이":8907,"이기":8908,"평화":8909,"장난":8910,"##으니까":8911,"사랑":8912,"##하라고":8913,"판단":8914,"니들은":8915,"판사":8916,"##바리":8917,"조선족":8918,"사람들은":8919,"자꾸":8920,"비교":8921,"##해요":8922,"국내":8923,"정은":8924,"아들":8925,"지키":8926,"사법":8927,"지들이":8928,"결혼":8929,"보는":8930,"##자나":8931,"##없고":8932,"정부는":8933,"진심":8934,"##지를":8935,"##보자":8936,"하지만":8937,"40":8938,"틀딱":8939,"##는거냐":8940,"##세먼":8941,"##히려":8942,"한심한":8943,"지가":8944,"##르는":8945,"학생":8946,"젊은":8947,"사라":8948,"##식으로":8949,"사회주의":8950,"국민은":8951,"##어야지":8952,"문죄인":8953,"##까요":8954,"놈들":8955,"##이었":8956,"임명":8957,"회사":8958,"##인다":8959,"감염":8960,"싫어":8961,"야당":8962,"##호사":8963,"일부":8964,"오히려":8965,"화이팅":8966,"맨날":8967,"그럴":8968,"있지":8969,"피해자":8970,"##말이":8971,"##하다고":8972,"##가지고":8973,"##놈이":8974,"##총장":8975,"엄마":8976,"이유가":8977,"##인거":8978,"가짜뉴스":8979,"무엇":8980,"없네":8981,"하여":8982,"하냐":8983,"싶다":8984,"##나면":8985,"##가면":8986,"자격":8987,"##조선":8988,"그거":8989,"찾아":8990,"##이라면":8991,"##우고":8992,"##시키고":8993,"##지마":8994,"전문":8995,"한마디":8996,"거의":8997,"때문":8998,"감옥":8999,"좋겠다":9000,"아파트":9001,"항상":9002,"나서":9003,"기회":9004,"위해서":9005,"##들한테":9006,"비판":9007,"조선일보":9008,"문재인은":9009,"하는게":9010,"개판":9011,"집회":9012,"##했던":9013,"선택":9014,"그나":9015,"그동안":9016,"현재":9017,"있습니다":9018,"이제는":9019,"저러":9020,"나와":9021,"고생":9022,"했는데":9023,"##님이":9024,"국정":9025,"있다고":9026,"다르":9027,"##야한다":9028,"##로운":9029,"지금은":9030,"양아치":9031,"##시길":9032,"##지원":9033,"알았":9034,"너는":9035,"도와":9036,"##집단":9037,"존재":9038,"대부분":9039,"투기":9040,"되어":9041,"##도가":9042,"##성을":9043,"관련":9044,"##국이":9045,"한다고":9046,"##에요":9047,"종북":9048,"아냐":9049,"일이":9050,"문통":9051,"##겠다고":9052,"헛소리":9053,"##먹는":9054,"##하는건":9055,"##자고":9056,"##군요":9057,"자리":9058,"병원":9059,"그것도":9060,"불매":9061,"박원":9062,"최소":9063,"나왔":9064,"미세먼":9065,"나올":9066,"신경":9067,"##정희":9068,"한국당":9069,"기억":9070,"없는데":9071,"안철수":9072,"##에선":9073,"##나고":9074,"##한다는":9075,"##되어":9076,"부산":9077,"그건":9078,"재산":9079,"응원합니다":9080,"가지":9081,"##가라":9082,"보이":9083,"어이":9084,"남의":9085,"주둥":9086,"정당":9087,"##들이다":9088,"##한건":9089,"##주면":9090,"돈이":9091,"일단":9092,"눈치":9093,"##더만":9094,"##수사":9095,"주변":9096,"끝까지":9097,"##상도":9098,"##범죄":9099,"분명":9100,"무섭":9101,"일본은":9102,"비리":9103,"주장":9104,"##시는":9105,"기다":9106,"가는":9107,"##던지":9108,"라고":9109,"사용":9110,"되었":9111,"자빠":9112,"##듯이":9113,"##사람이":9114,"교수":9115,"몰아":9116,"##보는":9117,"이야기":9118,"있음":9119,"##우는":9120,"##한국":9121,"##정이":9122,"##바로":9123,"##했으면":9124,"##지게":9125,"누군":9126,"내용":9127,"##아도":9128,"##0년":9129,"##하지만":9130,"전혀":9131,"세금으로":9132,"##분이":9133,"태극":9134,"물어":9135,"친구":9136,"##걸로":9137,"사망":9138,"대선":9139,"목숨":9140,"최악":9141,"##인줄":9142,"##냐고":9143,"##만이":9144,"너도":9145,"##제로":9146,"##봐도":9147,"##내는":9148,"전세계":9149,"것을":9150,"드러":9151,"직접":9152,"자체가":9153,"15":9154,"고소":9155,"바이러스":9156,"똑같은":9157,"주사":9158,"##겹다":9159,"##분들":9160,"도움":9161,"돈을":9162,"말하는":9163,"역대":9164,"그랬":9165,"나중에":9166,"수도":9167,"##하지말고":9168,"광화":9169,"이것":9170,"힘내":9171,"##을텐데":9172,"##순실":9173,"##사건":9174,"아마":9175,"박정희":9176,"방법":9177,"의심":9178,"무능한":9179,"##노총":9180,"함께":9181,"##줘야":9182,"여당":9183,"내년":9184,"위험":9185,"애국":9186,"하니":9187,"심판":9188,"아닌데":9189,"미통":9190,"고통":9191,"하늘":9192,"상관":9193,"##사일":9194,"논리":9195,"괜찮":9196,"##자로":9197,"입니다":9198,"매국노":9199,"사기꾼":9200,"안전":9201,"##하는지":9202,"이해가":9203,"기대":9204,"ㅉㅉㅉ":9205,"##세력":9206,"##여서":9207,"아닙":9208,"가만히":9209,"최저":9210,"노력":9211,"##더라도":9212,"상식":9213,"##이로":9214,"##나게":9215,"철저":9216,"독립":9217,"것들이":9218,"국개":9219,"더럽":9220,"것들":9221,"##기만":9222,"강남":9223,"##정책":9224,"악마":9225,"바뀌":9226,"##정치":9227,"기생":9228,"일을":9229,"쓰고":9230,"ㅎㅎㅎ":9231,"##거냐":9232,"심각":9233,"##든지":9234,"##주택":9235,"##하네요":9236,"##때는":9237,"기부":9238,"특히":9239,"##장을":9240,"했다":9241,"어쩔":9242,"그저":9243,"이정도":9244,"##학생":9245,"위선":9246,"바랍니다":9247,"공감":9248,"건강":9249,"##자들은":9250,"##수록":9251,"##쓰고":9252,"하다":9253,"안타깝":9254,"그러면":9255,"말로":9256,"사이비":9257,"가격":9258,"없음":9259,"알아서":9260,"하세요":9261,"부터":9262,"##사고":9263,"##시아":9264,"온갖":9265,"답답":9266,"믿고":9267,"이럴":9268,"우리는":9269,"이재명":9270,"처럼":9271,"##이라니":9272,"똑같이":9273,"##상을":9274,"대책":9275,"##돌아":9276,"노조":9277,"##습니까":9278,"##당히":9279,"사람을":9280,"물론":9281,"힘든":9282,"##세금":9283,"싶은":9284,"조용히":9285,"국제":9286,"뭔가":9287,"##지말":9288,"자랑":9289,"준비":9290,"##온다":9291,"끌어":9292,"##어버":9293,"말은":9294,"보호":9295,"이걸":9296,"주식":9297,"오래":9298,"##많은":9299,"##할까":9300,"판결":9301,"##하려고":9302,"##교육":9303,"비난":9304,"억울":9305,"에휴":9306,"##정을":9307,"##이든":9308,"연예":9309,"되고":9310,"##됩니다":9311,"최순실":9312,"##느라":9313,"더이상":9314,"받을":9315,"##해야한다":9316,"200":9317,"대해":9318,"당신이":9319,"##합시다":9320,"인터":9321,"시대":9322,"##져서":9323,"아닐":9324,"보기":9325,"##하니까":9326,"재앙이":9327,"확인":9328,"##겠나":9329,"똑같":9330,"민족":9331,"##었으면":9332,"##줘라":9333,"##가족":9334,"이익":9335,"무너":9336,"이놈":9337,"만들고":9338,"##라니":9339,"##추행":9340,"이리":9341,"애초":9342,"느그":9343,"생각하는":9344,"태극기":9345,"아니지":9346,"하자":9347,"##미향":9348,"광주":9349,"할머니":9350,"그대로":9351,"북한에":9352,"페미":9353,"##생활":9354,"쪽바리":9355,"투자":9356,"##중동":9357,"동네":9358,"아니라고":9359,"가진":9360,"의미":9361,"##인가요":9362,"##자기":9363,"##두환":9364,"##물이":9365,"##독교":9366,"##는가":9367,"인사":9368,"여행":9369,"많다":9370,"검찰이":9371,"##위해":9372,"##부대":9373,"있다는":9374,"##스럽다":9375,"과연":9376,"##수를":9377,"일제":9378,"일자리":9379,"우파":9380,"모자":9381,"법을":9382,"에라이":9383,"##사람들":9384,"##있네":9385,"##겠다는":9386,"25":9387,"##명을":9388,"##만에":9389,"본다":9390,"수준이":9391,"##겠네요":9392,"사업":9393,"##만한":9394,"윤미향":9395,"##자도":9396,"표현":9397,"##18":9398,"대변":9399,"의혹":9400,"위안":9401,"##을거":9402,"원전":9403,"지난":9404,"##어가":9405,"##을듯":9406,"미국이":9407,"전국민":9408,"##이를":9409,"이상한":9410,"벌써":9411,"박원순":9412,"전화":9413,"가라":9414,"##단다":9415,"##놈들이":9416,"전두환":9417,"아무것도":9418,"기가":9419,"##두고":9420,"모른":9421,"기술":9422,"집권":9423,"##되지":9424,"##졌네":9425,"##심이":9426,"아예":9427,"##관계":9428,"1년":9429,"사태":9430,"##잖아요":9431,"분노":9432,"미세먼지":9433,"주사파":9434,"출신":9435,"하나도":9436,"##해봐라":9437,"한국인":9438,"대기업":9439,"##할거":9440,"대응":9441,"광화문":9442,"쓰는":9443,"되지":9444,"##리네":9445,"##가가":9446,"통일":9447,"2년":9448,"##문회":9449,"##그러":9450,"들고":9451,"않는다":9452,"민주당이":9453,"운전":9454,"신고":9455,"바꿔":9456,"##했네":9457,"강력":9458,"그나마":9459,"노동":9460,"놈들이":9461,"미쳤":9462,"저지":9463,"남편":9464,"##보내":9465,"진정한":9466,"하지말고":9467,"##진국":9468,"지금까지":9469,"##선동":9470,"중국에":9471,"주고":9472,"뽑아":9473,"올려":9474,"##사회":9475,"관계":9476,"영화":9477,"##개월":9478,"조중동":9479,"##방송":9480,"지금도":9481,"##받아":9482,"잘못된":9483,"금지":9484,"여기서":9485,"바꾸":9486,"집에":9487,"깨끗":9488,"인간들이":9489,"가해":9490,"못하게":9491,"##만명":9492,"문씨":9493,"짱개":9494,"##임금":9495,"조심":9496,"거리":9497,"##려나":9498,"##가야":9499,"아프":9500,"까지":9501,"통합":9502,"##겠습니다":9503,"저게":9504,"우선":9505,"##시켜라":9506,"##한것":9507,"되면":9508,"본인이":9509,"확진자":9510,"국방":9511,"만드":9512,"성추행":9513,"웃기":9514,"지도":9515,"위안부":9516,"해주":9517,"봐도":9518,"##수는":9519,"미사일":9520,"지방":9521,"한심하다":9522,"상대":9523,"##하러":9524,"##ㅎㅎ":9525,"기생충":9526,"받는":9527,"ㅜㅜ":9528,"##으며":9529,"##겠죠":9530,"몰랐":9531,"관리":9532,"가져":9533,"때려":9534,"부족":9535,"그래야":9536,"입장":9537,"범죄자":9538,"목사":9539,"##시오":9540,"뭐라":9541,"어휴":9542,"##인의":9543,"10년":9544,"극우":9545,"##인듯":9546,"##력을":9547,"##받는":9548,"없어서":9549,"저거":9550,"빼고":9551,"##레임":9552,"##팔이":9553,"행복":9554,"없지":9555,"하는짓":9556,"생겼":9557,"문재앙이":9558,"포기":9559,"나오는":9560,"원숭":9561,"주는":9562,"이래서":9563,"##진핑":9564,"발언":9565,"두고":9566,"죽은":9567,"##공산":9568,"한테":9569,"한국은":9570,"##가락":9571,"##없어":9572,"살고":9573,"생각을":9574,"대한민국의":9575,"##인을":9576,"미안":9577,"영원":9578,"대놓고":9579,"단체":9580,"돌아가":9581,"애들이":9582,"##으려고":9583,"놈이":9584,"북한이":9585,"##그네":9586,"말씀":9587,"제정신":9588,"없었":9589,"그렇지":9590,"문정부":9591,"경험":9592,"애초에":9593,"갑자기":9594,"정확":9595,"부끄럽":9596,"##당한":9597,"민노총":9598,"##나보네":9599,"장사":9600,"##공자":9601,"시위":9602,"기준":9603,"중국이":9604,"택시":9605,"##고도":9606,"##하겠다":9607,"도둑":9608,"부탁":9609,"발전":9610,"직원":9611,"바라":9612,"민주당은":9613,"생긴":9614,"싫다":9615,"이딴":9616,"보도":9617,"짜증":9618,"옹호":9619,"##어준":9620,"진중":9621,"할수":9622,"##주도":9623,"빨갱":9624,"##머리":9625,"##따위":9626,"##민주주의":9627,"임대":9628,"재판":9629,"##잡고":9630,"##서는":9631,"들이":9632,"자국민":9633,"공공":9634,"생활":9635,"왜구":9636,"죄다":9637,"##검사":9638,"중앙":9639,"막말":9640,"수출":9641,"##가능":9642,"12":9643,"없으면":9644,"훨씬":9645,"나베":9646,"강제":9647,"##폭행":9648,"##폐렴":9649,"##인들이":9650,"대한민국을":9651,"치매":9652,"죽여":9653,"일본에":9654,"##없네":9655,"당선":9656,"미쳐":9657,"충분":9658,"똑바로":9659,"자가":9660,"##질이":9661,"##하는것":9662,"제목":9663,"물러":9664,"##시킨":9665,"안나":9666,"받았":9667,"소득":9668,"있을까":9669,"이러니":9670,"청문회":9671,"##자의":9672,"구라":9673,"##자식":9674,"##립니다":9675,"##같은데":9676,"##짓을":9677,"대한민국이":9678,"##언론":9679,"기사를":9680,"설치":9681,"아버":9682,"청원":9683,"##까봐":9684,"없다고":9685,"아가리":9686,"만드는":9687,"##댓글":9688,"##하려":9689,"꼬라지":9690,"청년":9691,"문제인":9692,"전에":9693,"있어야":9694,"무식한":9695,"##떨어":9696,"따로":9697,"##위에":9698,"유튜":9699,"##하더니":9700,"희생":9701,"##싶다":9702,"남탓":9703,"정권이":9704,"##체를":9705,"많아":9706,"않나":9707,"세상이":9708,"말아":9709,"불안":9710,"지지하는":9711,"##있고":9712,"##했냐":9713,"수십":9714,"##하신":9715,"발표":9716,"이낙":9717,"살아라":9718,"3년":9719,"돌려":9720,"##되었":9721,"##달라고":9722,"이번에":9723,"##지역":9724,"아닙니다":9725,"진중권":9726,"서울대":9727,"##있냐":9728,"##제에":9729,"혹시":9730,"시진핑":9731,"##좌파":9732,"##부모":9733,"##에만":9734,"짓거리":9735,"정은이":9736,"##지로":9737,"나라는":9738,"쪽팔":9739,"등등":9740,"고민":9741,"당신은":9742,"운영":9743,"놓고":9744,"아닌가요":9745,"있는지":9746,"집안":9747,"매일":9748,"자기가":9749,"##쓰레기":9750,"문정권":9751,"변호사":9752,"밀어":9753,"개가":9754,"유치":9755,"환경":9756,"대출":9757,"멍청한":9758,"##간에":9759,"다행":9760,"나라냐":9761,"##는구나":9762,"어렵":9763,"국민들을":9764,"언제까지":9765,"##한번":9766,"##하지마라":9767,"##먹을":9768,"희망":9769,"##일까":9770,"##그래":9771,"처리":9772,"자유한국":9773,"##학교":9774,"##당에":9775,"비슷":9776,"기독교":9777,"##장은":9778,"안된":9779,"돈벌":9780,"##했지":9781,"##화가":9782,"이런거":9783,"인민":9784,"유지":9785,"##나간":9786,"##줌마":9787,"무죄":9788,"노인":9789,"##먹은":9790,"##도를":9791,"알려":9792,"호구":9793,"##구리":9794,"##부로":9795,"##치가":9796,"들어가":9797,"##구먼":9798,"##조차":9799,"발생":9800,"쓰레기들":9801,"공매":9802,"##애들":9803,"신뢰":9804,"재난":9805,"##니깐":9806,"##ㅉㅉ":9807,"##할듯":9808,"##해주세요":9809,"60":9810,"##저리":9811,"죽을":9812,"감방":9813,"더듬":9814,"인구":9815,"저질":9816,"가슴":9817,"아깝":9818,"맞다":9819,"돈으로":9820,"##사태":9821,"이낙연":9822,"점점":9823,"##19":9824,"분열":9825,"적당히":9826,"##득권":9827,"뒤집":9828,"##광훈":9829,"개발":9830,"##이트":9831,"우리도":9832,"후보":9833,"악플":9834,"좌좀":9835,"하는지":9836,"찬성":9837,"남한":9838,"##ㅠㅠ":9839,"최저임금":9840,"선동질":9841,"##부가":9842,"##도로":9843,"##이네요":9844,"##기관":9845,"물타":9846,"##지네":9847,"ㅈㄹ":9848,"전국":9849,"있어서":9850,"없으니":9851,"한국이":9852,"##장에":9853,"입만":9854,"나라에서":9855,"이중":9856,"썩은":9857,"##있는데":9858,"수입":9859,"사람도":9860,"지옥":9861,"##좋은":9862,"##였다":9863,"받은":9864,"고맙":9865,"부르":9866,"특검":9867,"우리나라는":9868,"일어나":9869,"생각해":9870,"협박":9871,"##000":9872,"##쟁이":9873,"##오는":9874,"##치를":9875,"광고":9876,"경우":9877,"##님들":9878,"미개":9879,"##일을":9880,"##하다가":9881,"##었나":9882,"##것들은":9883,"##가를":9884,"바란다":9885,"민주화":9886,"##아닌가":9887,"못할":9888,"##독재":9889,"만약":9890,"##미터":9891,"##용이":9892,"공격":9893,"##리자":9894,"감성":9895,"전광훈":9896,"##하지않":9897,"##루킹":9898,"안가":9899,"##했고":9900,"##사람은":9901,"##사를":9902,"##말로":9903,"느낌":9904,"##본다":9905,"##트남":9906,"##대중":9907,"나오면":9908,"대통령은":9909,"법무부장관":9910,"아니야":9911,"고발":9912,"하던":9913,"꼴통":9914,"잘하고":9915,"취급":9916,"어이가":9917,"쩝쩝":9918,"저기":9919,"어려운":9920,"하나님":9921,"당시":9922,"##악한":9923,"가면":9924,"##어리":9925,"19":9926,"##리기":9927,"누굴":9928,"##으라고":9929,"불러":9930,"##집회":9931,"성공":9932,"가르":9933,"그러니까":9934,"웃긴":9935,"하기":9936,"뇌가":9937,"##보기":9938,"헌법":9939,"법이":9940,"용서":9941,"##기들":9942,"##입니까":9943,"##이도":9944,"##준표":9945,"무서운":9946,"##보수":9947,"배달":9948,"혜택":9949,"##구석":9950,"대통령님":9951,"##겠어요":9952,"답이다":9953,"이제와서":9954,"미통당":9955,"##도는":9956,"저리":9957,"대통":9958,"기득권":9959,"쉽게":9960,"요구":9961,"믿을":9962,"##진짜":9963,"예전":9964,"됩니다":9965,"마세요":9966,"벌어":9967,"하지마라":9968,"의료진":9969,"너같은":9970,"세상에":9971,"나와서":9972,"느끼":9973,"이후":9974,"소설":9975,"싸움":9976,"##년이":9977,"결정":9978,"비례":9979,"씨부":9980,"일어":9981,"##있나":9982,"##라인":9983,"정보":9984,"##주기":9985,"옛날":9986,"##공개":9987,"##돈으로":9988,"##레이":9989,"있는거":9990,"어제":9991,"##슬람":9992,"집에서":9993,"##만도":9994,"지구":9995,"##대고":9996,"의견":9997,"냄새":9998,"##지막":9999,"##일뿐":10000,"굳이":10001,"중국은":10002,"빨아":10003,"철저히":10004,"프레임":10005,"##들이나":10006,"정치를":10007,"생산":10008,"##렸다":10009,"경제가":10010,"확실히":10011,"##상에":10012,"늘어":10013,"##보다는":10014,"손해":10015,"나라의":10016,"폐지":10017,"아나":10018,"이지":10019,"폭망":10020,"##여행":10021,"둘다":10022,"대깨문들":10023,"나라에":10024,"##겠어":10025,"##놓은":10026,"##때까지":10027,"동물":10028,"정작":10029,"대해서":10030,"##러워":10031,"자신의":10032,"살기":10033,"한번도":10034,"자기들":10035,"##하길":10036,"지껄":10037,"홍준표":10038,"##재앙":10039,"##보단":10040,"하긴":10041,"##한다면":10042,"미군":10043,"그러나":10044,"##받을":10045,"##까운":10046,"없나":10047,"가정":10048,"선생":10049,"오르":10050,"뭔지":10051,"성폭행":10052,"##소득":10053,"규제":10054,"좋아하는":10055,"##mp":10056,"게임":10057,"모양":10058,"##의를":10059,"착각":10060,"##바닥":10061,"참으로":10062,"##하셨":10063,"몰라":10064,"##때문":10065,"입국금지":10066,"없습니다":10067,"##말을":10068,"국가가":10069,"개념":10070,"많은데":10071,"자유민주주의":10072,"70":10073,"힘들어":10074,"노예":10075,"##상은":10076,"이성":10077,"##이지만":10078,"생기":10079,"물고":10080,"ㅅㅂ":10081,"보인다":10082,"고마":10083,"##수수":10084,"##거면":10085,"문대통령":10086,"죄가":10087,"북괴":10088,"총장":10089,"##되서":10090,"달라":10091,"베트남":10092,"lt":10093,"소비":10094,"최소한":10095,"불매운동":10096,"##심을":10097,"않을":10098,"실패":10099,"똑똑":10100,"또라이":10101,"아무도":10102,"답이":10103,"대단한":10104,"문제는":10105,"조직":10106,"##쳐서":10107,"벌금":10108,"안돼":10109,"마찬":10110,"맞지":10111,"##권을":10112,"바람":10113,"정권의":10114,"##리게":10115,"대한민국은":10116,"##하겠지":10117,"강간":10118,"존경":10119,"없을":10120,"##반도":10121,"죄를":10122,"##출신":10123,"대신":10124,"평등":10125,"##지어":10126,"많네":10127,"갖고":10128,"방사":10129,"##졌다":10130,"한명":10131,"##아버":10132,"##우면":10133,"##화를":10134,"조국은":10135,"승리":10136,"직장":10137,"##상황":10138,"바른":10139,"부정선거":10140,"했던":10141,"왜이":10142,"##안하고":10143,"##었네":10144,"##적이고":10145,"유럽":10146,"철수":10147,"국민들의":10148,"한다는":10149,"기관":10150,"##준다":10151,"풀어":10152,"정신나간":10153,"##거고":10154,"##리냐":10155,"필요한":10156,"손혜":10157,"amp":10158,"취업":10159,"뭐라고":10160,"했으면":10161,"한국에":10162,"시원":10163,"##는것":10164,"죽어":10165,"받아야":10166,"눈물":10167,"운운":10168,"근거":10169,"임기":10170,"##때도":10171,"비싸":10172,"문가":10173,"##짜리":10174,"인터넷":10175,"밝히":10176,"마지막":10177,"다를":10178,"##없음":10179,"##보지":10180,"발악":10181,"주세요":10182,"여러분":10183,"##책임":10184,"일으":10185,"##했나":10186,"인성":10187,"무기":10188,"전염":10189,"현대":10190,"외국인":10191,"다녀":10192,"존나":10193,"##으로서":10194,"물타기":10195,"친중":10196,"빠져":10197,"삶은":10198,"정의당":10199,"##타령":10200,"보상":10201,"##워라":10202,"유튜브":10203,"역겨":10204,"##길래":10205,"##을까요":10206,"##십니다":10207,"핑계":10208,"##복을":10209,"수가":10210,"##았는데":10211,"##이기":10212,"##시켜야":10213,"##테니":10214,"기분":10215,"합시다":10216,"힘을":10217,"한달":10218,"##시절":10219,"진행":10220,"드루킹":10221,"##씨가":10222,"거다":10223,"##행위":10224,"사면":10225,"##갔다":10226,"자빠졌네":10227,"정부의":10228,"없냐":10229,"음주":10230,"갖다":10231,"보자":10232,"말만":10233,"##일은":10234,"노래":10235,"찍어":10236,"정경":10237,"##조리":10238,"도덕":10239,"대단하다":10240,"정치적":10241,"격리":10242,"아줌마":10243,"뭐하는":10244,"감싸":10245,"말아먹":10246,"인물":10247,"군사":10248,"##났다":10249,"##상으로":10250,"여자가":10251,"##비가":10252,"직업":10253,"새끼들":10254,"책임을":10255,"##것같":10256,"##했다는":10257,"##시키는":10258,"우한폐렴":10259,"##느냐":10260,"우린":10261,"크게":10262,"믿는":10263,"코로나로":10264,"도망":10265,"##나가":10266,"대처":10267,"##시에":10268,"미국은":10269,"자본":10270,"신문":10271,"생각하고":10272,"##한테는":10273,"월세":10274,"##아니냐":10275,"우습":10276,"힘내세요":10277,"기소":10278,"##빨갱이":10279,"뽑은":10280,"##필요":10281,"##운전":10282,"감정":10283,"프로":10284,"##있으면":10285,"보유":10286,"518":10287,"어른":10288,"마치":10289,"정신병자":10290,"리얼":10291,"##민주당":10292,"##쓰는":10293,"자동":10294,"##넘들":10295,"##원은":10296,"##아니고":10297,"떠나":10298,"##시면":10299,"못해":10300,"자녀":10301,"##셔서":10302,"##하다는":10303,"##영웅":10304,"취소":10305,"##속에":10306,"##분에":10307,"##그릇":10308,"교활":10309,"통계":10310,"##아지":10311,"통과":10312,"거부":10313,"##로지":10314,"라는":10315,"##그리":10316,"##시기":10317,"이것도":10318,"##들에":10319,"마약":10320,"타령":10321,"대다":10322,"##원에":10323,"봐야":10324,"##새끼들":10325,"맞아":10326,"일은":10327,"겁니다":10328,"으로":10329,"여론조사":10330,"문제다":10331,"##스러운":10332,"파업":10333,"러시아":10334,"시절":10335,"되는데":10336,"수구":10337,"##농단":10338,"##신도":10339,"정권을":10340,"##연금":10341,"##한거지":10342,"해체":10343,"##스템":10344,"올리":10345,"저도":10346,"초등":10347,"##인도":10348,"##아니라":10349,"생각은":10350,"##받은":10351,"더욱":10352,"##짓거리":10353,"실망":10354,"##으나":10355,"연구":10356,"맘대로":10357,"##있어":10358,"##땜에":10359,"짐승":10360,"최악의":10361,"가야":10362,"아빠":10363,"세금을":10364,"이루":10365,"##버리고":10366,"좋다":10367,"##었다고":10368,"이시":10369,"어리":10370,"자연":10371,"전문가":10372,"또한":10373,"나온다":10374,"주민":10375,"청소":10376,"한거":10377,"마누":10378,"##은데":10379,"뭔데":10380,"##이에":10381,"중요한":10382,"감사합니다":10383,"##여자":10384,"성범죄":10385,"##되는데":10386,"맞고":10387,"미리":10388,"눈에":10389,"나눠":10390,"##수로":10391,"##예요":10392,"이민":10393,"아웃":10394,"세력":10395,"정권은":10396,"짓을":10397,"국개의원":10398,"역겹다":10399,"영원히":10400,"물건":10401,"그지":10402,"포함":10403,"##아냐":10404,"1도":10405,"화가":10406,"##원장":10407,"통제":10408,"전체":10409,"괴롭":10410,"##었지":10411,"표창":10412,"가고":10413,"합의":10414,"예수":10415,"마찬가지":10416,"일본의":10417,"괜히":10418,"변명":10419,"명단":10420,"문화":10421,"있다면":10422,"버티":10423,"##공산당":10424,"##았네":10425,"##업자":10426,"서울시장":10427,"##다운":10428,"##놈의":10429,"##원도":10430,"대박":10431,"칭찬":10432,"쯧쯧":10433,"##대를":10434,"단순":10435,"사법부":10436,"##감정":10437,"좋다고":10438,"##교회":10439,"##내서":10440,"공급":10441,"남북":10442,"1억":10443,"##민족":10444,"오로지":10445,"자유한국당":10446,"정부에서":10447,"관광":10448,"죽음":10449,"##께서":10450,"무지":10451,"조국을":10452,"싸우":10453,"쉴드":10454,"중공":10455,"##말은":10456,"##모양":10457,"공짜":10458,"##아가":10459,"180":10460,"##지사":10461,"방사능":10462,"뭐하냐":10463,"상태":10464,"소대가리":10465,"운동권":10466,"김대중":10467,"당연한":10468,"영웅":10469,"##는다고":10470,"##금을":10471,"##치기":10472,"거기에":10473,"##르게":10474,"내고":10475,"##럽다":10476,"뇌물":10477,"ㅂㅅ":10478,"두번":10479,"##질을":10480,"##으세요":10481,"##하는구나":10482,"창피":10483,"개돼지들":10484,"안될":10485,"혈세":10486,"적극":10487,"하게":10488,"##오면":10489,"##물고":10490,"이유는":10491,"##는데도":10492,"한국의":10493,"지하":10494,"##달라":10495,"##당하고":10496,"무리":10497,"##잘못":10498,"##하는거지":10499,"##참에":10500,"하라고":10501,"그런거":10502,"팔아":10503,"부패":10504,"##사실":10505,"20대":10506,"나타":10507,"기도":10508,"##누리":10509,"##으려":10510,"##감이":10511,"11":10512,"부모가":10513,"자영업자":10514,"나쁘":10515,"대법":10516,"몇년":10517,"늙은":10518,"정상적인":10519,"외치":10520,"마이":10521,"##검찰":10522,"##로는":10523,"국민에게":10524,"해봐라":10525,"##청산":10526,"챙겨":10527,"간다":10528,"##이자":10529,"완전히":10530,"별로":10531,"##스럽게":10532,"##빠진":10533,"##법을":10534,"문재인과":10535,"##겠니":10536,"##디어":10537,"와서":10538,"만들어서":10539,"생명":10540,"예배":10541,"불편":10542,"##무시":10543,"##놈은":10544,"경쟁":10545,"등신":10546,"효과":10547,"미치":10548,"설명":10549,"되는거":10550,"##든가":10551,"##이들이":10552,"천벌":10553,"이다":10554,"다시는":10555,"##비리":10556,"300":10557,"만나":10558,"시험":10559,"##놈들은":10560,"##것만":10561,"##네들":10562,"부끄러운":10563,"##하고는":10564,"순간":10565,"##되냐":10566,"##주지":10567,"하여간":10568,"이만":10569,"나불":10570,"##통수":10571,"죽창":10572,"##했는지":10573,"##ㅜㅜ":10574,"자존":10575,"##활동":10576,"##드립니다":10577,"전기":10578,"봅니다":10579,"선진국":10580,"우리의":10581,"##했을":10582,"##친다":10583,"##와라":10584,"큰일":10585,"초딩":10586,"나머":10587,"구분":10588,"##해놓고":10589,"김일":10590,"자주":10591,"##많이":10592,"영업":10593,"##었냐":10594,"지능":10595,"##나네":10596,"벌레":10597,"홍어":10598,"##지에":10599,"함부로":10600,"불리":10601,"재미":10602,"검찰은":10603,"##줘서":10604,"축하":10605,"##세상":10606,"##관이":10607,"일본을":10608,"지급":10609,"##시요":10610,"경상도":10611,"징역":10612,"우리나라가":10613,"소름":10614,"너가":10615,"##안이":10616,"##쳐먹":10617,"않으면":10618,"유공자":10619,"##장에서":10620,"차별":10621,"합리":10622,"##이며":10623,"분들":10624,"##원에서":10625,"##림픽":10626,"있지만":10627,"##겠는데":10628,"##성은":10629,"단어":10630,"되냐":10631,"원하는":10632,"##일에":10633,"이참에":10634,"충분히":10635,"##재산":10636,"하라":10637,"동의":10638,"##사람들이":10639,"##조가":10640,"욕먹":10641,"만큼":10642,"있어요":10643,"##보험":10644,"동원":10645,"현정부":10646,"너나":10647,"휴가":10648,"이념":10649,"안하는":10650,"임영웅":10651,"움직":10652,"전형":10653,"명예":10654,"##위가":10655,"윤총장":10656,"배우":10657,"##좋아":10658,"불쌍한":10659,"##꺼다":10660,"진실을":10661,"신도":10662,"먹는":10663,"의무":10664,"##있음":10665,"일부러":10666,"##었던":10667,"살려":10668,"##원전":10669,"폭행":10670,"80":10671,"한두":10672,"##식을":10673,"아깝다":10674,"##벌레":10675,"##셔야":10676,"##하시는":10677,"##스런":10678,"윤석렬":10679,"이전":10680,"고위":10681,"공매도":10682,"##쓴다":10683,"##스가":10684,"애들은":10685,"##씨는":10686,"양반":10687,"이어":10688,"참여":10689,"잡고":10690,"혐오":10691,"배신":10692,"뭐야":10693,"거기서":10694,"추천":10695,"모르겠다":10696,"위에":10697,"홍콩":10698,"알지":10699,"하더니":10700,"결론":10701,"허위":10702,"##임을":10703,"국민들에게":10704,"##보세요":10705,"나라꼴":10706,"유승":10707,"내부":10708,"##았으면":10709,"저딴":10710,"##즈아":10711,"활동":10712,"듣고":10713,"영향":10714,"##제를":10715,"##하려는":10716,"##이죠":10717,"##일본":10718,"후손":10719,"적용":10720,"유니":10721,"좀비":10722,"아이들":10723,"##잡아":10724,"좃선":10725,"국민세금":10726,"##앞에":10727,"끌어내":10728,"없다는":10729,"보통":10730,"##꼴통":10731,"##개발":10732,"##수수색":10733,"##리나":10734,"챙기":10735,"조만":10736,"있는게":10737,"경찰이":10738,"동맹":10739,"갑질":10740,"한국에서":10741,"이분":10742,"##해봐":10743,"하는구나":10744,"모지":10745,"변호":10746,"그만해라":10747,"이라고":10748,"원숭이":10749,"최대":10750,"개나":10751,"법무장관":10752,"하지말":10753,"20년":10754,"##수의":10755,"아동":10756,"자체":10757,"모조리":10758,"스트":10759,"언론이":10760,"작년":10761,"##거리는":10762,"느껴":10763,"오른":10764,"모를":10765,"겨우":10766,"##부는":10767,"##고있다":10768,"##방에":10769,"##안에":10770,"##할것":10771,"마음이":10772,"##회사":10773,"##서야":10774,"재수":10775,"소리를":10776,"##투표":10777,"##라시":10778,"지금의":10779,"자한당은":10780,"마누라":10781,"##상태":10782,"연예인":10783,"주둥이":10784,"김종":10785,"너거":10786,"이해찬":10787,"손혜원":10788,"김어준":10789,"대화":10790,"##마트":10791,"북한은":10792,"복지":10793,"##나온다":10794,"##위기":10795,"근무":10796,"돈은":10797,"##아리":10798,"욕하는":10799,"고려":10800,"조민":10801,"새로운":10802,"산다":10803,"건물":10804,"난다":10805,"##죄로":10806,"찬양":10807,"했다고":10808,"계획":10809,"남은":10810,"##아님":10811,"줄어":10812,"이란":10813,"예산":10814,"##대에":10815,"##기나":10816,"말한":10817,"##제가":10818,"##하긴":10819,"머리가":10820,"모두가":10821,"폭력":10822,"##입국":10823,"사장":10824,"##판에":10825,"##리라":10826,"##기전에":10827,"달려":10828,"사실을":10829,"지겹다":10830,"##하지마":10831,"특혜":10832,"한일":10833,"놀아":10834,"에이":10835,"##따라":10836,"들아":10837,"아이가":10838,"90":10839,"##차별":10840,"##줄알":10841,"##쳐라":10842,"장기":10843,"속이":10844,"치고":10845,"자한당이":10846,"지지합니다":10847,"잘한다":10848,"##치면":10849,"해주세요":10850,"수백":10851,"김경":10852,"심지어":10853,"참고":10854,"목소리":10855,"애비":10856,"##위를":10857,"##단계":10858,"멀쩡":10859,"언젠":10860,"어째":10861,"보이는":10862,"##이유":10863,"정도로":10864,"압수수색":10865,"##되는거":10866,"##대한민국":10867,"팔아먹":10868,"##저기":10869,"##에게는":10870,"틀린":10871,"권력을":10872,"##는건가":10873,"김정은이":10874,"##더냐":10875,"##곳에":10876,"5년":10877,"문슬람":10878,"높은":10879,"꺼져라":10880,"##석이":10881,"가지가지":10882,"한반도":10883,"##하거나":10884,"그만큼":10885,"엄청난":10886,"안해":10887,"##BS":10888,"그렇다고":10889,"일하는":10890,"##교수":10891,"##레스":10892,"추종":10893,"##지나":10894,"먹을":10895,"세뇌":10896,"된다고":10897,"##님은":10898,"뒤집어":10899,"시급":10900,"하여튼":10901,"##하시고":10902,"대통령을":10903,"같아":10904,"##제도":10905,"##져도":10906,"피해를":10907,"사죄":10908,"##아이":10909,"아침":10910,"비정":10911,"설마":10912,"##그만":10913,"##이구나":10914,"주제에":10915,"좌파들":10916,"당하고":10917,"가득":10918,"##후보":10919,"절대로":10920,"왜곡":10921,"타고":10922,"이런게":10923,"안다":10924,"ㄷㄷ":10925,"##의가":10926,"코스":10927,"##세를":10928,"음식":10929,"##국의":10930,"아이고":10931,"대중":10932,"공약":10933,"대변인":10934,"입으로":10935,"평소":10936,"검색":10937,"이만희":10938,"동안":10939,"그렇고":10940,"##리도":10941,"생각하면":10942,"성장":10943,"데려":10944,"당당":10945,"##선을":10946,"이혼":10947,"##버리":10948,"힘들게":10949,"무섭다":10950,"##bs":10951,"저는":10952,"##10":10953,"반도":10954,"##인들은":10955,"##봐요":10956,"##했음":10957,"이용해":10958,"500":10959,"임금":10960,"한국을":10961,"정책을":10962,"민생":10963,"바닥":10964,"사회적":10965,"갔다":10966,"실제":10967,"시끄":10968,"하려고":10969,"##건가요":10970,"해당":10971,"옳은":10972,"하지마":10973,"##만들":10974,"북으로":10975,"##주가":10976,"그것":10977,"후회":10978,"단식":10979,"일본과":10980,"안되고":10981,"적어도":10982,"조만간":10983,"중에":10984,"하야":10985,"##자인":10986,"##상공":10987,"떳떳":10988,"##음이":10989,"쓸데":10990,"봉사":10991,"##만들어":10992,"중국에서":10993,"정치인들":10994,"몰려":10995,"안맞":10996,"##원을":10997,"접종":10998,"안나오":10999,"욕을":11000,"무뇌":11001,"몰라도":11002,"증명":11003,"이정부":11004,"없어요":11005,"지시":11006,"일도":11007,"나대":11008,"##였는데":11009,"입에":11010,"##는건데":11011,"이정도면":11012,"연봉":11013,"다니는":11014,"정신차려라":11015,"올랐":11016,"##리아":11017,"가자":11018,"겁나":11019,"더듬어":11020,"##롭게":11021,"퇴출":11022,"충성":11023,"##으신":11024,"##위로":11025,"아베가":11026,"고용":11027,"##정당":11028,"##이여":11029,"담배":11030,"이정권":11031,"##마니":11032,"상황이":11033,"교통":11034,"하며":11035,"뛰어":11036,"청구":11037,"이득":11038,"고작":11039,"전교":11040,"이슈":11041,"썩어":11042,"##패스":11043,"이것이":11044,"정리":11045,"##겨서":11046,"여기저기":11047,"너의":11048,"되나":11049,"부자":11050,"김학":11051,"##만으로":11052,"유니클":11053,"이쯤":11054,"##려도":11055,"201":11056,"##계가":11057,"꺼져":11058,"##히고":11059,"맞는말":11060,"연기":11061,"##타고":11062,"대한민국에":11063,"빨갱이들":11064,"저건":11065,"아버지":11066,"추가":11067,"키우":11068,"않다":11069,"안정":11070,"##함을":11071,"보복":11072,"뿐이다":11073,"##격이":11074,"깜빵":11075,"예상":11076,"웃기는":11077,"중소":11078,"##라스":11079,"##내야":11080,"##되나":11081,"구조":11082,"않냐":11083,"##하나요":11084,"지네":11085,"##가도":11086,"##이터":11087,"##빨리":11088,"##는건지":11089,"##지원금":11090,"원칙":11091,"##신이":11092,"앉아":11093,"##사기":11094,"내놓":11095,"훌륭":11096,"경기도":11097,"말이다":11098,"##처벌":11099,"죽이고":11100,"보여주":11101,"##덩어리":11102,"##제품":11103,"걸린":11104,"잘하는":11105,"파악":11106,"이명박근혜":11107,"놀고":11108,"생각합니다":11109,"밥그릇":11110,"##하지도":11111,"##세대":11112,"너희들":11113,"놈들은":11114,"유일":11115,"유명":11116,"모른다":11117,"안달":11118,"위조":11119,"낫다":11120,"연금":11121,"민심":11122,"올해":11123,"##발전":11124,"코로나가":11125,"죽일":11126,"##법이":11127,"사상":11128,"##라마":11129,"##전쟁":11130,"재벌":11131,"내는":11132,"장애":11133,"졸라":11134,"##하다니":11135,"박영":11136,"각종":11137,"##석은":11138,"지원금":11139,"인간은":11140,"공장":11141,"##문이":11142,"##발이":11143,"##장난":11144,"##있지":11145,"문재앙은":11146,"해야한다":11147,"이재용":11148,"##봤자":11149,"유리":11150,"있어도":11151,"쳐먹":11152,"한게":11153,"##느니":11154,"잘못을":11155,"잘살":11156,"##하죠":11157,"##의식":11158,"인증":11159,"오직":11160,"아닌지":11161,"하니까":11162,"하나같이":11163,"그러게":11164,"##럽게":11165,"##지키":11166,"작은":11167,"환자":11168,"##해주고":11169,"##지못":11170,"거래":11171,"죽어나":11172,"시간이":11173,"데모":11174,"##리로":11175,"투기꾼":11176,"시민단체":11177,"확산":11178,"정유":11179,"버스":11180,"감히":11181,"##해지":11182,"정신이":11183,"특별":11184,"인간들은":11185,"##리는데":11186,"폭등":11187,"##에겐":11188,"같습니다":11189,"경기":11190,"##때마다":11191,"4년":11192,"##해줄":11193,"남아":11194,"알면서":11195,"김일성":11196,"위협":11197,"앞에서":11198,"뜯어":11199,"공천":11200,"생각한다":11201,"기록":11202,"알게":11203,"##시나":11204,"비싼":11205,"##20":11206,"신기":11207,"##동네":11208,"뻔뻔한":11209,"민간":11210,"##이라서":11211,"##오고":11212,"##할수있":11213,"정치적으로":11214,"문재인의":11215,"좌빨들":11216,"중도":11217,"##르기":11218,"매우":11219,"##당을":11220,"##것처럼":11221,"박그네":11222,"현정권":11223,"못된":11224,"##아들":11225,"##장으로":11226,"박근혜가":11227,"시키고":11228,"문재인을":11229,"##을수":11230,"패거리":11231,"##었고":11232,"안됨":11233,"##경이":11234,"떠들":11235,"두려":11236,"1000":11237,"제2":11238,"있게":11239,"##사람들은":11240,"이런데":11241,"경제는":11242,"거야":11243,"주면":11244,"지적":11245,"지지율이":11246,"신상":11247,"##정보":11248,"은행":11249,"##시설":11250,"기사가":11251,"##처리":11252,"제외":11253,"##한가":11254,"박살":11255,"##세가":11256,"망해":11257,"##여야":11258,"같아요":11259,"안하면":11260,"##자체":11261,"우려":11262,"##시죠":11263,"한미":11264,"##노조":11265,"데리고":11266,"죽이":11267,"많아서":11268,"##위한":11269,"제가":11270,"너무나":11271,"##하겠네":11272,"##래도":11273,"분이":11274,"꼰대":11275,"태양":11276,"##부장관":11277,"당신들":11278,"##했으니":11279,"##가며":11280,"##고있네":11281,"2차":11282,"살아야":11283,"민폐":11284,"흔들":11285,"##점이":11286,"주택":11287,"##르면":11288,"정의로운":11289,"그만하고":11290,"##국으로":11291,"##비스":11292,"제품":11293,"##공화":11294,"가게":11295,"하는건":11296,"남자가":11297,"해놓고":11298,"말라":11299,"오지":11300,"있나요":11301,"진작":11302,"안들":11303,"살다":11304,"건설":11305,"가치":11306,"막아":11307,"부담":11308,"안됩니다":11309,"다가":11310,"##한척":11311,"것들은":11312,"##30":11313,"##권력":11314,"티비":11315,"##이니까":11316,"보험":11317,"##경찰":11318,"반미":11319,"자신이":11320,"유니클로":11321,"마시고":11322,"다른나라":11323,"##당의":11324,"건드":11325,"정경심":11326,"버리고":11327,"주인":11328,"##래기":11329,"##과는":11330,"남녀":11331,"##르스":11332,"##관련":11333,"군인":11334,"돈도":11335,"약속":11336,"가즈아":11337,"##리다":11338,"통해":11339,"최고의":11340,"하셨":11341,"박영선":11342,"##망신":11343,"1위":11344,"##일도":11345,"어쩔수":11346,"보면서":11347,"##성애":11348,"##함이":11349,"인도":11350,"공평":11351,"업무":11352,"도로":11353,"때문이다":11354,"중국몽":11355,"가난":11356,"##했어":11357,"##사업":11358,"만세":11359,"자위":11360,"수많은":11361,"죄인":11362,"모르나":11363,"무시하고":11364,"문제지":11365,"사전":11366,"##병원":11367,"##대의":11368,"할말":11369,"힘이":11370,"남을":11371,"##한지":11372,"추진":11373,"##대도":11374,"어떻게든":11375,"현금":11376,"개돼지로":11377,"##됐다":11378,"이라":11379,"행사":11380,"##시킬":11381,"음주운전":11382,"이승":11383,"##단이":11384,"##가네":11385,"되겠네":11386,"참나":11387,"계약":11388,"추방":11389,"싹다":11390,"##었음":11391,"##바른":11392,"할까":11393,"올림픽":11394,"##할게":11395,"##알바":11396,"베네":11397,"클럽":11398,"시스템":11399,"실수":11400,"##만을":11401,"##으론":11402,"##시켰":11403,"산업":11404,"##대강":11405,"총선에서":11406,"##가자":11407,"앞에":11408,"##정도로":11409,"도움이":11410,"좋아요":11411,"이번엔":11412,"못한다":11413,"여론조작":11414,"시국에":11415,"##통합":11416,"정답":11417,"자본주의":11418,"상대로":11419,"##도소":11420,"인해":11421,"ㅅㄲ":11422,"##군이":11423,"한남":11424,"천안":11425,"고집":11426,"반박":11427,"개미":11428,"##석희":11429,"달고":11430,"##히는":11431,"오죽":11432,"이래도":11433,"##었다면":11434,"시청":11435,"일본으로":11436,"##내라":11437,"장악":11438,"여자들":11439,"##바라":11440,"##워야":11441,"##른다":11442,"##장도":11443,"인재":11444,"##었어":11445,"불가능":11446,"논문":11447,"##없으면":11448,"##전히":11449,"떨어지":11450,"##거임":11451,"180석":11452,"이겨":11453,"총리":11454,"악질":11455,"질문":11456,"끝나":11457,"##자체가":11458,"##버렸":11459,"하는것":11460,"##있게":11461,"조폭":11462,"##기지":11463,"출산":11464,"살았":11465,"국정농단":11466,"기자가":11467,"##재판":11468,"가해자":11469,"눈이":11470,"방해":11471,"중국의":11472,"엉망":11473,"자격이":11474,"오늘도":11475,"달창들":11476,"세상을":11477,"떠들어":11478,"실력":11479,"##제한":11480,"ㅇㅇ":11481,"##할려고":11482,"위반":11483,"간신":11484,"탈원전":11485,"##하에":11486,"인상":11487,"청산":11488,"##때가":11489,"이사람":11490,"더한":11491,"집어":11492,"##으라":11493,"##간첩":11494,"당신의":11495,"목적":11496,"##하시길":11497,"북한으로":11498,"##시지":11499,"편가":11500,"##기자":11501,"부들":11502,"##도안":11503,"자식들":11504,"##리들":11505,"##고싶다":11506,"트럼프가":11507,"추잡":11508,"한마디로":11509,"##개가":11510,"경제를":11511,"##쪽으로":11512,"세금이":11513,"끼리":11514,"보네":11515,"##일세":11516,"황교활":11517,"##것다":11518,"김정":11519,"14":11520,"남성":11521,"##아는":11522,"##다는걸":11523,"머저리":11524,"차단":11525,"근본":11526,"국산":11527,"##방역":11528,"##50":11529,"할줄":11530,"들은":11531,"##내려":11532,"##후에":11533,"행정":11534,"개입":11535,"##구멍":11536,"서민들":11537,"##줘도":11538,"##하든":11539,"거냐":11540,"교사":11541,"공직":11542,"##기면":11543,"검찰총장":11544,"##되어야":11545,"##부를":11546,"##답게":11547,"개뿔":11548,"깡패":11549,"##율이":11550,"구역":11551,"##대응":11552,"과학":11553,"역할":11554,"##매매":11555,"##때부터":11556,"관종":11557,"있구나":11558,"21":11559,"##여라":11560,"신천":11561,"##비를":11562,"손가락":11563,"16":11564,"##치한":11565,"##였으면":11566,"##신문":11567,"식민":11568,"언급":11569,"##합니까":11570,"김학의":11571,"##인드":11572,"누구나":11573,"##대상":11574,"떠나서":11575,"지지자":11576,"개학":11577,"소상공":11578,"끌고":11579,"욕심":11580,"홍보":11581,"##어주":11582,"##좌빨":11583,"##엘라":11584,"싶어":11585,"지금이":11586,"고등":11587,"17":11588,"##리스트":11589,"##새키":11590,"안쓰":11591,"상승":11592,"아닐까":11593,"자동차":11594,"##날이":11595,"##반대":11596,"방탄":11597,"지들은":11598,"기사는":11599,"아닌듯":11600,"미개한":11601,"불쌍하다":11602,"보이지":11603,"집행":11604,"##프레":11605,"삼성이":11606,"친북":11607,"이미지":11608,"##안을":11609,"늘어나":11610,"폐기":11611,"##라라":11612,"##일베":11613,"역대급":11614,"##다는건":11615,"##치지":11616,"하고싶":11617,"금융":11618,"망할":11619,"##권이":11620,"그것이":11621,"##는거임":11622,"유치원":11623,"부분":11624,"뭐니":11625,"##으로는":11626,"조롱":11627,"때는":11628,"조장":11629,"##로서":11630,"부추":11631,"##생이":11632,"시행":11633,"제한":11634,"스트레스":11635,"30년":11636,"##버려":11637,"어지":11638,"넘들":11639,"##되니":11640,"##다시":11641,"검증":11642,"논란":11643,"진심으로":11644,"보지":11645,"##버린":11646,"##위원":11647,"##준다고":11648,"미국의":11649,"식당":11650,"덕분에":11651,"시킨":11652,"파렴":11653,"화장":11654,"찌질":11655,"리얼미터":11656,"많고":11657,"맙시다":11658,"##구니":11659,"명복을":11660,"##리세요":11661,"##해봐야":11662,"하네요":11663,"어울":11664,"성과":11665,"것입니다":11666,"안좋":11667,"자료":11668,"구매":11669,"##애들이":11670,"징징":11671,"##리에":11672,"##in":11673,"##박이":11674,"판매":11675,"써라":11676,"애가":11677,"도시":11678,"##잡이":11679,"염병":11680,"정치에":11681,"이니":11682,"탈북":11683,"출마":11684,"##업체":11685,"행태":11686,"지들끼리":11687,"죽어라":11688,"수치":11689,"이사":11690,"맘에":11691,"있어라":11692,"알아야":11693,"전염병":11694,"##없는데":11695,"국가의":11696,"궁금하다":11697,"해보":11698,"영상":11699,"적폐청산":11700,"##님의":11701,"##가는데":11702,"불과":11703,"국가를":11704,"어떠":11705,"같네요":11706,"또는":11707,"에서":11708,"비서":11709,"나오지":11710,"보세요":11711,"처음부터":11712,"강화":11713,"나랏":11714,"우습게":11715,"열받":11716,"비상":11717,"이웃":11718,"##bc":11719,"거품":11720,"##충들":11721,"##끼들":11722,"특징":11723,"##국민이":11724,"뒤에":11725,"##랜드":11726,"대만":11727,"전형적인":11728,"생각도":11729,"##은게":11730,"##싸움":11731,"ㅈㄴ":11732,"##인으로":11733,"국익":11734,"죄송":11735,"##가게":11736,"하다가":11737,"계산":11738,"평가":11739,"조작질":11740,"비행":11741,"##하도록":11742,"빕니다":11743,"노릇":11744,"##마냥":11745,"못차":11746,"오만":11747,"경북":11748,"보소":11749,"처먹":11750,"##빼고":11751,"지하철":11752,"온라인":11753,"대한민국에서":11754,"##중에도":11755,"##모르":11756,"##비로":11757,"일당":11758,"##싫다":11759,"##구로":11760,"##데로":11761,"선전":11762,"재인":11763,"##남아":11764,"지령":11765,"##하던데":11766,"자존심":11767,"안타깝다":11768,"할일":11769,"하겠지":11770,"##아니다":11771,"##부들":11772,"##피해":11773,"안한다":11774,"##하하":11775,"##년도":11776,"##결과":11777,"털어":11778,"##다리":11779,"실제로":11780,"##인게":11781,"보수가":11782,"못살":11783,"애플":11784,"##나와":11785,"니들도":11786,"참석":11787,"##탄핵":11788,"없어져야":11789,"태어나":11790,"##비는":11791,"같음":11792,"애미":11793,"중소기업":11794,"아래":11795,"아들이":11796,"테러":11797,"이런걸":11798,"##잔아":11799,"##에다":11800,"역겨운":11801,"유승민":11802,"ㄹㅇ":11803,"북한과":11804,"말자":11805,"코로나19":11806,"10억":11807,"미래가":11808,"##나라가":11809,"바라는":11810,"##마리":11811,"이하":11812,"##하는거야":11813,"##인척":11814,"지금이라도":11815,"##청원":11816,"메르스":11817,"대충":11818,"상처":11819,"##성장":11820,"##주민":11821,"##다니는":11822,"##났네":11823,"##년은":11824,"##부지":11825,"뿌리":11826,"##실이":11827,"핵심":11828,"어쩌고":11829,"소신":11830,"전교조":11831,"문닫":11832,"인데":11833,"반도체":11834,"##았나":11835,"죽어도":11836,"있던":11837,"##인사":11838,"불구":11839,"뒤에서":11840,"네가":11841,"##이스":11842,"못하면":11843,"독재자":11844,"시켜라":11845,"퍼트":11846,"##규직":11847,"문죄앙":11848,"비핵":11849,"둘이":11850,"능력이":11851,"그들이":11852,"부모님":11853,"##해주는":11854,"##하지말":11855,"언제부터":11856,"그딴":11857,"어디로":11858,"교도소":11859,"##수있는":11860,"모든게":11861,"##마저":11862,"##계를":11863,"##겠습니까":11864,"멍멍":11865,"세금은":11866,"지식":11867,"집을":11868,"인터뷰":11869,"소속":11870,"반대로":11871,"##십시요":11872,"##러움":11873,"앞뒤":11874,"환장":11875,"##제동":11876,"학폭":11877,"나서서":11878,"인간아":11879,"니네가":11880,"짜파":11881,"국민연금":11882,"##감을":11883,"어린이":11884,"##맞고":11885,"##는거고":11886,"북한의":11887,"##가다":11888,"##들이네":11889,"그러냐":11890,"해명":11891,"##통이":11892,"위로":11893,"수술":11894,"##재인":11895,"5천":11896,"##보도":11897,"##시네":11898,"실험":11899,"##양반":11900,"사드":11901,"올리고":11902,"손석희":11903,"필요하다":11904,"내세":11905,"##하는거냐":11906,"##소미":11907,"개같은":11908,"욕하고":11909,"##못하는":11910,"찌라시":11911,"마련":11912,"##의사":11913,"대형":11914,"민식이":11915,"당신들이":11916,"미국에":11917,"실업":11918,"한나라":11919,"40대":11920,"기존":11921,"같네":11922,"##된다고":11923,"거짓말을":11924,"##기다":11925,"##대변":11926,"배운":11927,"자유당":11928,"대상":11929,"13":11930,"국가에서":11931,"힘들다":11932,"좋은데":11933,"것으로":11934,"수사를":11935,"##집에":11936,"할수있":11937,"이순":11938,"##스타":11939,"##거라고":11940,"##걸고":11941,"##저씨":11942,"##격리":11943,"여자는":11944,"존중":11945,"포장":11946,"망하게":11947,"##국을":11948,"##자금":11949,"매번":11950,"##겠군":11951,"너희들이":11952,"##했습니다":11953,"다만":11954,"집중":11955,"##위는":11956,"전략":11957,"##인건":11958,"서울시":11959,"강요":11960,"수천":11961,"사실이":11962,"갈수록":11963,"끔찍":11964,"뭐지":11965,"않습니다":11966,"끌려":11967,"##가면서":11968,"##리는게":11969,"##정부가":11970,"조금만":11971,"드라마":11972,"망신":11973,"비례대표":11974,"##거같":11975,"어케":11976,"그러고":11977,"모여":11978,"##으러":11979,"작작":11980,"정권에":11981,"뭐하나":11982,"재앙아":11983,"절반":11984,"##있다고":11985,"##어진":11986,"혼란":11987,"한걸":11988,"폐쇄":11989,"아무런":11990,"모아":11991,"되어야":11992,"##선이":11993,"##세로":11994,"##하려면":11995,"##시간에":11996,"일이다":11997,"경영":11998,"나아":11999,"##가나":12000,"##을것":12001,"저능":12002,"차기":12003,"정부를":12004,"##취급":12005,"##혀서":12006,"놀러":12007,"폭동":12008,"할배":12009,"천박":12010,"다주택":12011,"비용":12012,"검찰을":12013,"않아":12014,"##안되는":12015,"안되지":12016,"지소미":12017,"##소년":12018,"##구가":12019,"소중":12020,"##나니":12021,"쏟아":12022,"##곳이":12023,"##봅니다":12024,"전라":12025,"니는":12026,"태어":12027,"##좀해라":12028,"##화자":12029,"1인":12030,"버닝":12031,"##하더라":12032,"##분열":12033,"기사에":12034,"견찰":12035,"했지":12036,"##너무":12037,"대우":12038,"##정권이":12039,"입학":12040,"우리나라에":12041,"수익":12042,"제주도":12043,"##0년대":12044,"보낸":12045,"##하노":12046,"이를":12047,"족속":12048,"소송":12049,"##다른":12050,"올린":12051,"아니지만":12052,"사람들도":12053,"통합당":12054,"##였네":12055,"내일":12056,"##보호":12057,"##둬라":12058,"독일":12059,"##있으니":12060,"뭐든":12061,"않을까":12062,"그네":12063,"##만의":12064,"마땅":12065,"입맛":12066,"망가":12067,"##할지":12068,"요즘은":12069,"##코로나":12070,"수고":12071,"상식적으로":12072,"##경영":12073,"##물에":12074,"대가리가":12075,"##시작":12076,"##답다":12077,"영국":12078,"모르냐":12079,"사람의":12080,"스타":12081,"정의를":12082,"결국은":12083,"갈아":12084,"##처먹":12085,"그들의":12086,"##매국":12087,"##on":12088,"싸이":12089,"의도":12090,"같냐":12091,"짜고":12092,"안되면":12093,"일관":12094,"##집니다":12095,"독립운동":12096,"중앙일보":12097,"왕따":12098,"중국과":12099,"##리니":12100,"싫으면":12101,"된다는":12102,"인지":12103,"했냐":12104,"추경":12105,"분들이":12106,"4월":12107,"##한거다":12108,"이길":12109,"안하냐":12110,"아는데":12111,"##만하고":12112,"##보이":12113,"##점을":12114,"##지기":12115,"여태":12116,"##모습":12117,"개그":12118,"##물을":12119,"국토":12120,"하겠다":12121,"##센터":12122,"##법으로":12123,"##되게":12124,"건데":12125,"##BC":12126,"단속":12127,"##없지":12128,"들여":12129,"빨간":12130,"김제동":12131,"##통일":12132,"이런식으로":12133,"사라지":12134,"##했지만":12135,"##분들이":12136,"##지않고":12137,"그정도":12138,"필요가":12139,"##고생":12140,"##직원":12141,"카드":12142,"고향":12143,"##벌이":12144,"파면":12145,"##저히":12146,"한사람":12147,"##인간들":12148,"했는지":12149,"##만하면":12150,"##말에":12151,"바쁘":12152,"기업이":12153,"한가":12154,"악의":12155,"현실을":12156,"2주":12157,"개인의":12158,"##관리":12159,"이시국에":12160,"##못한":12161,"한겨":12162,"##리즘":12163,"##겠지요":12164,"알았다":12165,"바퀴":12166,"##시마":12167,"그러면서":12168,"동참":12169,"글을":12170,"허구":12171,"울산":12172,"정도면":12173,"시켰":12174,"##화자찬":12175,"줘야":12176,"##적폐":12177,"그렇다":12178,"몇십":12179,"살면":12180,"##보소":12181,"남이":12182,"앞장":12183,"오세":12184,"##을거다":12185,"##치네":12186,"수도권":12187,"대북":12188,"김치":12189,"사유":12190,"저걸":12191,"##그런":12192,"싫은":12193,"##폭탄":12194,"저지른":12195,"끝이":12196,"감시":12197,"선수":12198,"1등":12199,"보니까":12200,"시키는":12201,"특정":12202,"##주의자":12203,"호남":12204,"찍소리":12205,"들어오":12206,"##년에":12207,"##사에":12208,"죽인":12209,"##못하고":12210,"반복":12211,"베네수":12212,"##마음":12213,"##긋지":12214,"나간":12215,"##하라는":12216,"부디":12217,"개독":12218,"동성애":12219,"택배":12220,"협조":12221,"몰고":12222,"최근":12223,"명분":12224,"##없다고":12225,"30대":12226,"증거가":12227,"말이야":12228,"연장":12229,"애기":12230,"꼼수":12231,"##바뀌":12232,"감옥에":12233,"살아있는":12234,"북한을":12235,"예전에":12236,"이넘":12237,"##당과":12238,"##하자고":12239,"##줄이":12240,"발광":12241,"##명은":12242,"합법":12243,"##하겠냐":12244,"##추고":12245,"장학":12246,"##미디":12247,"말인가":12248,"날이":12249,"##한테도":12250,"받아서":12251,"가족이":12252,"누군가":12253,"##었는지":12254,"자화자찬":12255,"누구를":12256,"##적이다":12257,"몰래":12258,"##차가":12259,"##거는":12260,"알아라":12261,"맞네":12262,"나오고":12263,"강제로":12264,"쓰면":12265,"##십시오":12266,"##an":12267,"##한걸":12268,"역사를":12269,"싶으면":12270,"태양광":12271,"##이래":12272,"찍은":12273,"저정도":12274,"없네요":12275,"걸려":12276,"인간의":12277,"##성에":12278,"검찰의":12279,"행동을":12280,"##들이지":12281,"반대하는":12282,"분명히":12283,"파괴":12284,"##사랑":12285,"어마":12286,"집구석":12287,"##미가":12288,"삭발":12289,"신천지가":12290,"웃고":12291,"죄값":12292,"기어":12293,"대비":12294,"문재인대통령":12295,"##쳐먹고":12296,"정부에":12297,"김경수":12298,"이기적인":12299,"세대":12300,"게다가":12301,"소리하고":12302,"##겠구나":12303,"##정의":12304,"해산":12305,"다름":12306,"고유":12307,"라도":12308,"머리에":12309,"밝혀라":12310,"뭐하러":12311,"##받아야":12312,"##용으로":12313,"나머지":12314,"##살이":12315,"공산화":12316,"속보":12317,"##정에":12318,"가능한":12319,"주변에":12320,"박탈":12321,"이새끼":12322,"야이":12323,"지는":12324,"##쳐야":12325,"##답니다":12326,"얻어":12327,"##투기":12328,"##갑니다":12329,"저것들":12330,"##자에":12331,"거리두":12332,"##긴다":12333,"이언":12334,"##번째":12335,"유학":12336,"자식이":12337,"나가서":12338,"말라고":12339,"##서를":12340,"압박":12341,"애를":12342,"일상":12343,"조선시대":12344,"살게":12345,"##네ㅋㅋ":12346,"만만":12347,"우덜":12348,"법적":12349,"##리는거":12350,"지나가는":12351,"##영상":12352,"##자에게":12353,"애쓴다":12354,"않게":12355,"더럽게":12356,"건가":12357,"말로만":12358,"날뛰":12359,"근로":12360,"##수석":12361,"##야말로":12362,"양보":12363,"##겠는가":12364,"가관":12365,"언론에":12366,"##id":12367,"하던데":12368,"##드만":12369,"의사가":12370,"이단":12371,"진단":12372,"명령":12373,"죽는":12374,"지역구":12375,"##성도":12376,"어서":12377,"착한":12378,"건지":12379,"투명":12380,"다같이":12381,"##들이랑":12382,"이것들은":12383,"##알고":12384,"읽어":12385,"당사":12386,"##보다도":12387,"99":12388,"저런게":12389,"좋았":12390,"##중이":12391,"사람들을":12392,"몇명":12393,"마인드":12394,"면상":12395,"말하고":12396,"##지다":12397,"##서도":12398,"위기":12399,"구역질":12400,"갈등":12401,"##거래":12402,"인천":12403,"구린":12404,"양심이":12405,"동양":12406,"전파":12407,"가까":12408,"영어":12409,"##진이":12410,"받아라":12411,"잔인":12412,"그쪽":12413,"제재":12414,"무능력":12415,"장모":12416,"생색":12417,"감당":12418,"학대":12419,"##회에":12420,"##진당":12421,"피의":12422,"##해야할":12423,"오세훈":12424,"민정":12425,"##기술":12426,"한참":12427,"##행동":12428,"어딜":12429,"걸리면":12430,"요새":12431,"##줘야지":12432,"##선수":12433,"KBS":12434,"절라도":12435,"서초":12436,"웃긴다":12437,"##폭력":12438,"무료":12439,"##이라는게":12440,"떨어진":12441,"의대":12442,"##나도":12443,"좌우":12444,"버닝썬":12445,"차려라":12446,"감성팔이":12447,"부부":12448,"##하구":12449,"할말이":12450,"##거품":12451,"##인것":12452,"결과가":12453,"##들여":12454,"목표":12455,"##시켜서":12456,"말할":12457,"##내가":12458,"돌대가리":12459,"##의로":12460,"##전문":12461,"성매매":12462,"마녀":12463,"대권":12464,"##겨라":12465,"모르겠":12466,"하수":12467,"미래를":12468,"안그래":12469,"짜파구리":12470,"##먼저":12471,"여야":12472,"심각한":12473,"나무":12474,"퍼주":12475,"##하는거다":12476,"안할":12477,"그러다":12478,"##기간":12479,"##듣고":12480,"적화":12481,"커녕":12482,"##라며":12483,"블랙":12484,"살면서":12485,"새키":12486,"돈만":12487,"타이":12488,"하려":12489,"하는짓이":12490,"##아주":12491,"##끼고":12492,"##얘기":12493,"자국":12494,"전수":12495,"댓글이":12496,"##지도않":12497,"이쯤되면":12498,"갈라":12499,"##었을":12500,"##지니":12501,"##쳐도":12502,"모여서":12503,"넘게":12504,"재난지원금":12505,"##지마세요":12506,"##사도":12507,"##없어서":12508,"우리국민":12509,"해먹":12510,"제2의":12511,"나라도":12512,"아픈":12513,"##무리":12514,"##사로":12515,"하늘을":12516,"더럽고":12517,"새벽":12518,"줘라":12519,"저래":12520,"종식":12521,"대통령도":12522,"인기":12523,"당연한거":12524,"소리가":12525,"진영":12526,"##여도":12527,"토론":12528,"암튼":12529,"##했다면":12530,"당한":12531,"##십니까":12532,"강력한":12533,"집합":12534,"##제는":12535,"노답":12536,"유투":12537,"##격을":12538,"신청":12539,"헬조선":12540,"##징역":12541,"##그램":12542,"무엇을":12543,"닥치고":12544,"개선":12545,"맞춰":12546,"정부와":12547,"##님을":12548,"보장":12549,"인가":12550,"정인이":12551,"어느정도":12552,"##청장":12553,"비핵화":12554,"경고":12555,"24":12556,"진상":12557,"생각좀":12558,"##다는데":12559,"그놈의":12560,"심상":12561,"전정권":12562,"공포":12563,"놀랍":12564,"조센":12565,"4대강":12566,"도와주":12567,"공산국가":12568,"##인걸":12569,"##국은":12570,"베네수엘라":12571,"한데":12572,"언제나":12573,"하는거지":12574,"이따위":12575,"##므로":12576,"맞게":12577,"낭비":12578,"순수":12579,"댓글을":12580,"제도":12581,"##자유":12582,"반응":12583,"길거리":12584,"##만원씩":12585,"왜이리":12586,"##서서":12587,"##적은":12588,"것이고":12589,"##북한":12590,"놈은":12591,"아이를":12592,"큰소리":12593,"댓글들":12594,"##시가":12595,"의해":12596,"중국을":12597,"##운데":12598,"##마스크":12599,"상상":12600,"명백":12601,"해석":12602,"후진국":12603,"##보복":12604,"말하면":12605,"걸고":12606,"의식":12607,"새누리":12608,"공작":12609,"자유를":12610,"##크로":12611,"##어놓고":12612,"##자연":12613,"##능력":12614,"걸레":12615,"피해자가":12616,"문제를":12617,"무역":12618,"할때":12619,"##가냐":12620,"끝났":12621,"넘쳐":12622,"##르신":12623,"더불당":12624,"##법은":12625,"##꼬라지":12626,"##하겠다고":12627,"망한다":12628,"##받았":12629,"역겹":12630,"나라로":12631,"##수호":12632,"자유대한민국":12633,"입고":12634,"국민과":12635,"간호사":12636,"밑에":12637,"나만":12638,"청와대가":12639,"할것":12640,"##구라":12641,"없애고":12642,"##긋지긋":12643,"이루어":12644,"오지게":12645,"##로만":12646,"##정부는":12647,"상황에":12648,"무서워":12649,"보고도":12650,"인종":12651,"문어":12652,"##내면":12653,"코미디":12654,"이유로":12655,"비열":12656,"##으셨":12657,"수꼴":12658,"박사":12659,"아부":12660,"##종석":12661,"법원":12662,"대국민":12663,"동남아":12664,"##자들의":12665,"좌파들은":12666,"비겁":12667,"##올라":12668,"드디어":12669,"##이구만":12670,"엄벌":12671,"##걱정":12672,"억지":12673,"미국과":12674,"##얼굴":12675,"면허":12676,"불만":12677,"올바른":12678,"표창장":12679,"##유공자":12680,"아닙니까":12681,"##바이러스":12682,"훠훠":12683,"일베충":12684,"어느나라":12685,"전자":12686,"기름":12687,"나라다":12688,"##말도":12689,"개무시":12690,"권력에":12691,"국짐":12692,"고맙다":12693,"법치":12694,"여전히":12695,"코스프레":12696,"있었는데":12697,"중립":12698,"달라고":12699,"당대표":12700,"##마나":12701,"우리나라도":12702,"##률이":12703,"없구나":12704,"보내고":12705,"그들은":12706,"수령":12707,"##총선":12708,"##자다":12709,"##해야함":12710,"막고":12711,"못하면서":12712,"좌표":12713,"비슷한":12714,"##리카":12715,"법은":12716,"##마자":12717,"않았다":12718,"방향":12719,"이익을":12720,"없애라":12721,"대갈":12722,"입을":12723,"있었다":12724,"##ns":12725,"받으면":12726,"##자와":12727,"##앞에서":12728,"똥꼬":12729,"어디에":12730,"먹고살":12731,"김현":12732,"##행을":12733,"국민의힘":12734,"##어죽":12735,"##이런":12736,"##25":12737,"모습이":12738,"끝날":12739,"아이들이":12740,"해봐":12741,"여가":12742,"말장난":12743,"##놔라":12744,"##이란다":12745,"없었다":12746,"배려":12747,"이나라가":12748,"##이라며":12749,"붙어":12750,"잘해":12751,"것처럼":12752,"어딨":12753,"박수":12754,"##걸까":12755,"연합":12756,"아닥":12757,"##이팅":12758,"왜냐":12759,"법안":12760,"삭제":12761,"상황에서":12762,"##써라":12763,"기초":12764,"모습을":12765,"자리에":12766,"##파악":12767,"현명":12768,"영혼":12769,"##을려고":12770,"아닌거":12771,"조치":12772,"말아라":12773,"자기들이":12774,"초기":12775,"신경쓰":12776,"##순간":12777,"무릎":12778,"공항":12779,"이성윤":12780,"##못해":12781,"이모양":12782,"##봤다":12783,"지긋지긋":12784,"탈탈":12785,"어떨":12786,"##아파트":12787,"프랑":12788,"걸렸":12789,"연락":12790,"들어서":12791,"##꺼야":12792,"##등등":12793,"##는거죠":12794,"안들어":12795,"##겟다":12796,"잘난":12797,"대통령의":12798,"질질":12799,"쓰지":12800,"##하잖아":12801,"매출":12802,"##이익":12803,"##드라":12804,"##틀딱":12805,"대다수":12806,"##기네":12807,"바다":12808,"##다녀":12809,"모욕":12810,"먹여":12811,"##조치":12812,"##까지는":12813,"공동":12814,"이유를":12815,"정확히":12816,"조건":12817,"##내용":12818,"공무원들":12819,"세종":12820,"기레기들":12821,"##뿐이다":12822,"마음대로":12823,"##투자":12824,"##산업":12825,"이런건":12826,"말해":12827,"옹호하는":12828,"태극기부대":12829,"매달":12830,"말에":12831,"분위기":12832,"와이":12833,"이러다":12834,"장관이":12835,"##적을":12836,"이라는":12837,"##버려라":12838,"##차는":12839,"민낯":12840,"##라는게":12841,"공정한":12842,"##공무원":12843,"이순신":12844,"##할텐데":12845,"돌아다니":12846,"사무":12847,"옆에":12848,"문빠들":12849,"동일":12850,"좌익":12851,"클라스":12852,"정치권":12853,"처단":12854,"모지리":12855,"상황을":12856,"##비용":12857,"##회견":12858,"##였음":12859,"##의도":12860,"편하게":12861,"##양이":12862,"사서":12863,"시기":12864,"폭탄":12865,"##된거":12866,"부대":12867,"않음":12868,"##사진":12869,"웃기네":12870,"배상":12871,"##종교":12872,"시켜야":12873,"그에":12874,"어쩜":12875,"제1":12876,"##지영":12877,"핵무":12878,"마구":12879,"어쩌다":12880,"훈련":12881,"벗어나":12882,"같으니":12883,"슬프":12884,"##으로써":12885,"국민들도":12886,"부작":12887,"##지말자":12888,"죽고":12889,"##린다고":12890,"봉쇄":12891,"##넘이":12892,"원인":12893,"이나라는":12894,"##일듯":12895,"딸이":12896,"자발":12897,"##년간":12898,"비호":12899,"얼굴에":12900,"지소미아":12901,"사실상":12902,"##몰이":12903,"적이":12904,"##자만":12905,"열면":12906,"나라망":12907,"후쿠":12908,"나누":12909,"키워":12910,"##힌다":12911,"##감염":12912,"##명의":12913,"기자야":12914,"인류":12915,"여기에":12916,"##내자":12917,"##드려":12918,"유전":12919,"도저히":12920,"중간":12921,"무서워서":12922,"떨어지는":12923,"이끌":12924,"##량이":12925,"뒤로":12926,"##닫고":12927,"조국의":12928,"특수":12929,"박멸":12930,"든다":12931,"##드폰":12932,"확보":12933,"공공의":12934,"탄압":12935,"일주":12936,"정치는":12937,"자영업자들":12938,"##들로":12939,"뽑았":12940,"좌파는":12941,"증가":12942,"수호":12943,"제대로된":12944,"인정하고":12945,"허용":12946,"똘마니":12947,"얼른":12948,"사회에":12949,"안된다고":12950,"파탄":12951,"했나":12952,"시체":12953,"자제":12954,"문재앙과":12955,"이간":12956,"##을지":12957,"어짜":12958,"##기야":12959,"아무나":12960,"이나":12961,"없지만":12962,"먼지":12963,"##그냥":12964,"##사냥":12965,"##선언":12966,"##공항":12967,"##빠리":12968,"언론사":12969,"있는가":12970,"##다음":12971,"국회의원이":12972,"##가는구나":12973,"소통":12974,"그돈":12975,"일본에서":12976,"강경":12977,"고인의":12978,"##하느라":12979,"##겁니까":12980,"물가":12981,"독도":12982,"##하는것도":12983,"휴대":12984,"집값이":12985,"기레기야":12986,"##운영":12987,"앞으로도":12988,"말아야":12989,"##잖어":12990,"정수":12991,"때가":12992,"##이란게":12993,"##살인":12994,"##질은":12995,"분리":12996,"##하자는":12997,"살지":12998,"투쟁":12999,"사는게":13000,"폐렴":13001,"댓글조작":13002,"정치하는":13003,"할거":13004,"##신고":13005,"얘는":13006,"정유라":13007,"친문":13008,"좋겠습니다":13009,"##었으니":13010,"미국에서":13011,"비롯":13012,"한다면":13013,"잘못이":13014,"이것들":13015,"바뀌면":13016,"대답":13017,"##라지가":13018,"##냄새":13019,"특권":13020,"있네요":13021,"맞는데":13022,"서서":13023,"공식":13024,"개검":13025,"요청":13026,"가족들":13027,"시대가":13028,"불공":13029,"적자":13030,"##질러":13031,"분양":13032,"강한":13033,"##왔다":13034,"댓글에":13035,"##ㅅㄲ":13036,"차지":13037,"##만은":13038,"인식":13039,"##너스":13040,"의문":13041,"가려":13042,"천안함":13043,"믿어":13044,"수업":13045,"##리며":13046,"이꼴":13047,"비하":13048,"웃음":13049,"했네":13050,"확진자가":13051,"수작":13052,"##이지요":13053,"위선자":13054,"##애들은":13055,"똥개":13056,"##하겠다는":13057,"자칭":13058,"하루빨리":13059,"보여주는":13060,"무기징역":13061,"부인":13062,"외면":13063,"아쉽":13064,"못해서":13065,"오염":13066,"##친구":13067,"##들이야":13068,"##일로":13069,"##치료":13070,"##든다":13071,"재밌":13072,"커피":13073,"##금이":13074,"몇번":13075,"##문화":13076,"월북":13077,"하지않":13078,"학원":13079,"##주냐":13080,"##같네":13081,"이용해서":13082,"아름":13083,"북조선":13084,"##하고있":13085,"강하게":13086,"침묵":13087,"남자들":13088,"인물이":13089,"다이":13090,"매년":13091,"한표":13092,"서비스":13093,"아니네":13094,"##였던":13095,"멀쩡한":13096,"##인생":13097,"부끄럽다":13098,"##정하고":13099,"일개":13100,"사회가":13101,"되었다":13102,"치는":13103,"지지자들":13104,"장제":13105,"##하구나":13106,"모르겠네":13107,"바퀴벌레":13108,"##엄마":13109,"##아나":13110,"음모":13111,"##민이":13112,"법으로":13113,"이럴때":13114,"##총리":13115,"기자님":13116,"저희":13117,"사리":13118,"내편":13119,"그러지":13120,"야당이":13121,"사망자":13122,"한쪽":13123,"썩을":13124,"역사에":13125,"아시아":13126,"##er":13127,"##15":13128,"시대에":13129,"아우":13130,"정신좀":13131,"좀더":13132,"중단":13133,"마트":13134,"어르신":13135,"사시":13136,"##강간":13137,"구경":13138,"살자":13139,"북에":13140,"평균":13141,"000":13142,"##주를":13143,"싸이코":13144,"양심도":13145,"##해야합니다":13146,"왔다":13147,"내리":13148,"마음에":13149,"그자리":13150,"무엇이":13151,"객관":13152,"##xx":13153,"안철":13154,"걸어":13155,"##이게":13156,"##사퇴":13157,"정체":13158,"민주당과":13159,"자극":13160,"범법":13161,"##기위해":13162,"##산다":13163,"##중국":13164,"하도":13165,"##방이":13166,"미국도":13167,"##색히":13168,"##공감":13169,"피눈":13170,"구나":13171,"글로":13172,"장자연":13173,"이자":13174,"구입":13175,"꼴보기":13176,"싶어서":13177,"탈출":13178,"식으로":13179,"##적도":13180,"광우":13181,"방문":13182,"영구":13183,"극혐":13184,"단일":13185,"아녀":13186,"여경":13187,"차이":13188,"정책이":13189,"답변":13190,"프랑스":13191,"##한거야":13192,"후쿠시마":13193,"하락":13194,"##겠구만":13195,"##것같다":13196,"다스":13197,"퍼뜨":13198,"##노릇":13199,"간단":13200,"살인마":13201,"올리는":13202,"##에게도":13203,"##대학":13204,"##는거네":13205,"##꺼면":13206,"태풍":13207,"사례":13208,"어처":13209,"질병":13210,"박근혜는":13211,"보건":13212,"권한":13213,"##놈아":13214,"맞다고":13215,"김진":13216,"모임":13217,"자가격리":13218,"발목":13219,"대학생":13220,"##무슨":13221,"감빵":13222,"정의가":13223,"어떡":13224,"오는":13225,"빠진":13226,"ㅁㅊ":13227,"꼬리":13228,"##이크":13229,"전국민이":13230,"법대로":13231,"##자들을":13232,"개돼지들이":13233,"##였어":13234,"그런가":13235,"표를":13236,"리더":13237,"의사들":13238,"두둔":13239,"##맘대로":13240,"정직":13241,"안믿":13242,"수단":13243,"##점에":13244,"이탈":13245,"##아니면":13246,"일으키":13247,"먹은":13248,"귀족":13249,"몰라서":13250,"총선때":13251,"안내":13252,"##치소":13253,"수시":13254,"##모두":13255,"거기다":13256,"배웠":13257,"윤석열이":13258,"보냈":13259,"에효":13260,"징글":13261,"죽이는":13262,"미투":13263,"성인":13264,"빠는":13265,"좋게":13266,"대가리에":13267,"##해준":13268,"좌파가":13269,"단지":13270,"중국인들":13271,"들어간":13272,"새끼가":13273,"##카페":13274,"진료":13275,"출근":13276,"##넣고":13277,"##당시":13278,"##시네요":13279,"##나지":13280,"어짜피":13281,"선거법":13282,"너희들은":13283,"얘네":13284,"가증":13285,"##아버지":13286,"##오지":13287,"##배는":13288,"##수저":13289,"역적":13290,"##실히":13291,"##놈들아":13292,"##정한":13293,"삶을":13294,"죽으면":13295,"될까":13296,"부들부들":13297,"의전":13298,"##아프":13299,"##신교":13300,"검토":13301,"모든걸":13302,"환영":13303,"능력도":13304,"##불가":13305,"정치가":13306,"##으려는":13307,"##판사":13308,"##점은":13309,"물려":13310,"외치는":13311,"협상":13312,"##신을":13313,"지경":13314,"식민지":13315,"##스러":13316,"도입":13317,"주둥아리":13318,"빼앗":13319,"시도":13320,"웃기고":13321,"동생":13322,"##차를":13323,"말대로":13324,"것인가":13325,"중심":13326,"냄새가":13327,"##최고":13328,"소방":13329,"끝나면":13330,"나경원이":13331,"소득주도":13332,"재앙이가":13333,"잘했다":13334,"미성":13335,"##소년단":13336,"인건":13337,"더러":13338,"더블":13339,"여기가":13340,"제공":13341,"##평등":13342,"미친거":13343,"좋겠네요":13344,"진짜로":13345,"할려고":13346,"##둥이":13347,"누가봐도":13348,"##구속":13349,"핸드폰":13350,"답답하다":13351,"못받":13352,"그림":13353,"202":13354,"제거":13355,"긴급":13356,"입시":13357,"인간을":13358,"시간에":13359,"카페":13360,"입양":13361,"TV":13362,"##서가":13363,"작업":13364,"정치인이":13365,"##스터":13366,"업체":13367,"연결":13368,"중국으로":13369,"자들이":13370,"##부러":13371,"##인데도":13372,"##주니":13373,"정신을":13374,"수석":13375,"만들어라":13376,"##조국":13377,"##번에":13378,"없어도":13379,"협력":13380,"##수당":13381,"추한":13382,"##지르":13383,"폭락":13384,"어머니":13385,"이지경":13386,"##공화국":13387,"행위":13388,"##대기":13389,"기자회견":13390,"학생들":13391,"더불어민주당":13392,"##외교":13393,"##마이":13394,"어처구니":13395,"죽을때":13396,"##모로":13397,"잘한":13398,"주범":13399,"##었습니다":13400,"스마트":13401,"나오네":13402,"##당하는":13403,"##소나":13404,"##주자":13405,"##우리":13406,"팔고":13407,"더더":13408,"##테고":13409,"이와":13410,"신발":13411,"적은":13412,"본인들":13413,"잡아서":13414,"##치게":13415,"천지":13416,"후원":13417,"고스":13418,"항의":13419,"한글":13420,"목숨을":13421,"##했어요":13422,"제시":13423,"##인영":13424,"색히":13425,"하느":13426,"##곳에서":13427,"했으니":13428,"있도록":13429,"비정상":13430,"으이":13431,"##랍시고":13432,"통신":13433,"LG":13434,"지배":13435,"아니잖아":13436,"광신도":13437,"안되나":13438,"알았는데":13439,"편의":13440,"필요없다":13441,"##시위":13442,"슬슬":13443,"이것들이":13444,"대깨문들은":13445,"보수는":13446,"끼리끼리":13447,"수장":13448,"불륜":13449,"##할래":13450,"맞을":13451,"##리오":13452,"고민정":13453,"회복":13454,"지속":13455,"##하고싶":13456,"보내라":13457,"뭐고":13458,"김종인":13459,"금방":13460,"##중대":13461,"많음":13462,"밥먹":13463,"황교안이":13464,"공익":13465,"조국과":13466,"앉아서":13467,"장학금":13468,"주지":13469,"똑같다":13470,"엉뚱":13471,"견제":13472,"##하는가":13473,"##한거냐":13474,"##개입":13475,"모르면":13476,"주한":13477,"말이냐":13478,"판사가":13479,"유죄":13480,"##만해도":13481,"교체":13482,"못믿":13483,"다죽":13484,"##졌으면":13485,"똑같네":13486,"방탄소년단":13487,"##수밖에":13488,"치우":13489,"총살":13490,"##지않은":13491,"의미가":13492,"##알아":13493,"느낀":13494,"##기준":13495,"틀딱들":13496,"정말로":13497,"안해도":13498,"인성이":13499,"##경북":13500,"뒤통수":13501,"발악을":13502,"##점에서":13503,"공유":13504,"중국산":13505,"아마도":13506,"있었던":13507,"자신들의":13508,"아까":13509,"##노동":13510,"아저씨":13511,"할듯":13512,"확실한":13513,"일본인":13514,"##ㄷㄷ":13515,"숟가락":13516,"세금도":13517,"##나다":13518,"##분은":13519,"내려와라":13520,"안하":13521,"방위":13522,"##년전":13523,"무능하고":13524,"맞습니다":13525,"국힘":13526,"된장":13527,"불가":13528,"##렸네":13529,"일본도":13530,"##간이":13531,"비하면":13532,"감동":13533,"지내":13534,"##라구":13535,"차고":13536,"누구는":13537,"##메디":13538,"확실하게":13539,"짓이":13540,"대통령으로":13541,"엄중":13542,"안보고":13543,"멀리":13544,"##안되":13545,"없는거":13546,"구상":13547,"생명을":13548,"처벌을":13549,"좋고":13550,"##분들은":13551,"##중인":13552,"##보여":13553,"##년을":13554,"##리면서":13555,"낮은":13556,"위장":13557,"안먹":13558,"세워":13559,"정확한":13560,"##승리":13561,"##정권은":13562,"들먹":13563,"나라꼴이":13564,"며칠":13565,"자기네":13566,"##끼는":13567,"##두순":13568,"이런기사":13569,"##대책":13570,"박원숭":13571,"명절":13572,"보다는":13573,"자진":13574,"##개를":13575,"본인의":13576,"넘어가":13577,"##사이":13578,"##세는":13579,"그니까":13580,"##경욱":13581,"##소가":13582,"현장":13583,"사세요":13584,"주도":13585,"충격":13586,"한겨레":13587,"##비에":13588,"##같으면":13589,"재인이":13590,"##인권":13591,"마녀사냥":13592,"아이폰":13593,"##목사":13594,"문천지":13595,"살아남":13596,"##40":13597,"##ㅈㄹ":13598,"뭉가":13599,"곳이":13600,"##효과":13601,"##는것도":13602,"거덜":13603,"방치":13604,"철회":13605,"##어마":13606,"망언":13607,"사표":13608,"주가":13609,"고만":13610,"##하기도":13611,"안되는데":13612,"잘못한":13613,"멋진":13614,"나면":13615,"침략":13616,"##터리":13617,"쳐다":13618,"어쩌라고":13619,"좌파들이":13620,"잘라":13621,"받지":13622,"##조직":13623,"훌륭한":13624,"싸그리":13625,"권력의":13626,"사악한":13627,"어리석은":13628,"이러면":13629,"범죄를":13630,"추악한":13631,"제조":13632,"만들어야":13633,"##폭망":13634,"유가족":13635,"좋지":13636,"근혜":13637,"임대료":13638,"##지않나":13639,"안간다":13640,"한강":13641,"국회에서":13642,"일방":13643,"머가":13644,"일자":13645,"##MF":13646,"##거부":13647,"국민청원":13648,"가입":13649,"걸로":13650,"않나요":13651,"##수준이":13652,"보고싶":13653,"##것네":13654,"여기는":13655,"##수있다":13656,"##이후":13657,"##새끼가":13658,"50대":13659,"권리":13660,"가능성이":13661,"너희가":13662,"##였고":13663,"한건":13664,"##으로만":13665,"문재인정부":13666,"실천":13667,"휴대폰":13668,"##면피":13669,"이놈의":13670,"다를게":13671,"어디까지":13672,"온통":13673,"일삼":13674,"일제시대":13675,"부활":13676,"차량":13677,"본인은":13678,"인간들아":13679,"최강":13680,"천국":13681,"##화는":13682,"백수":13683,"어용":13684,"했을":13685,"작전":13686,"안걸":13687,"쓸데없는":13688,"공무원이":13689,"막아야":13690,"보게":13691,"##걸이":13692,"##개념":13693,"도데":13694,"sns":13695,"내야":13696,"##시키면":13697,"막을":13698,"낫지":13699,"졸업":13700,"##징글":13701,"끝난":13702,"새로":13703,"휘둘":13704,"싫어하는":13705,"##입고":13706,"##새기":13707,"##셔요":13708,"각오":13709,"없는게":13710,"투입":13711,"이대로":13712,"문죄인이":13713,"열등":13714,"우리나라에서":13715,"##돈이":13716,"해줄":13717,"금액":13718,"생겨":13719,"민경욱":13720,"자신을":13721,"한걸레":13722,"##았다고":13723,"떨어질":13724,"##스럽고":13725,"전면":13726,"화웨":13727,"입법":13728,"되니":13729,"##인에":13730,"아쉬":13731,"##스트라":13732,"##비도":13733,"아파":13734,"조상":13735,"##나라도":13736,"##환자":13737,"누군지":13738,"허허":13739,"##속에서":13740,"안한":13741,"이동":13742,"아니니":13743,"안받":13744,"##드러":13745,"##조원":13746,"##주로":13747,"매도":13748,"잘도":13749,"역시나":13750,"##모가":13751,"평범":13752,"모르겠지만":13753,"엄마가":13754,"##겟지":13755,"기회에":13756,"맞음":13757,"조두순":13758,"반납":13759,"넘는":13760,"개신교":13761,"##곳은":13762,"있다가":13763,"##시험":13764,"지진":13765,"##장님":13766,"해요":13767,"이간질":13768,"##연히":13769,"깨끗한":13770,"##위해서":13771,"땜에":13772,"##간히":13773,"직무":13774,"석방":13775,"인턴":13776,"##이요":13777,"문재인도":13778,"허가":13779,"##토록":13780,"싸가지":13781,"##거리고":13782,"공짜로":13783,"##지랄":13784,"공기":13785,"모르지":13786,"나름":13787,"조사해서":13788,"민주당의":13789,"##량한":13790,"##꾸로":13791,"우롱":13792,"민주당에":13793,"##었다는":13794,"진작에":13795,"정권잡":13796,"던져":13797,"조금이라도":13798,"당신도":13799,"마음을":13800,"##여론":13801,"부탁드립니다":13802,"다는":13803,"이승만":13804,"##해진":13805,"##이들아":13806,"##막고":13807,"##여러":13808,"합격":13809,"덮어":13810,"아프리카":13811,"위대한":13812,"##조를":13813,"여자들이":13814,"다음에":13815,"##할거다":13816,"##고있는데":13817,"공지영":13818,"전과":13819,"##바꾸":13820,"##하고도":13821,"돌아가는":13822,"위험한":13823,"##성과":13824,"따지":13825,"##통에":13826,"강행":13827,"##졌는데":13828,"롯데":13829,"전원":13830,"세금만":13831,"결과는":13832,"아니라는":13833,"##년들":13834,"소릴":13835,"##버려야":13836,"이제야":13837,"편가르기":13838,"경찰은":13839,"##원들":13840,"걸려서":13841,"개정은":13842,"기가막":13843,"이네":13844,"사람에게":13845,"경호":13846,"##사람도":13847,"양도":13848,"어쩌구":13849,"무고":13850,"방법이":13851,"##내지":13852,"안철수가":13853,"##원봉":13854,"자세":13855,"매장":13856,"소유":13857,"##망이":13858,"##소를":13859,"너네가":13860,"##할줄":13861,"검찰에":13862,"##정권의":13863,"내려오":13864,"사람만":13865,"시비":13866,"##성공":13867,"꼴이":13868,"취재":13869,"##사상":13870,"##오르":13871,"남자는":13872,"행동이":13873,"있잖아":13874,"모범":13875,"##린거":13876,"아직까지":13877,"책임은":13878,"##태우":13879,"좋아서":13880,"정도는":13881,"성적":13882,"있겠지":13883,"제출":13884,"##께요":13885,"##집권":13886,"미성년":13887,"극복":13888,"##노무":13889,"기업들":13890,"##납니다":13891,"##플레이":13892,"급여":13893,"비행기":13894,"사라져야":13895,"##86":13896,"##해주면":13897,"하나요":13898,"문어벙":13899,"돈에":13900,"##았냐":13901,"##것들아":13902,"##속으로":13903,"국가에":13904,"##협회":13905,"무책임":13906,"##보내고":13907,"힘드":13908,"부끄러운줄":13909,"##살아":13910,"마냥":13911,"대안":13912,"받게":13913,"병역":13914,"구멍":13915,"##상에서":13916,"눈치보":13917,"구걸":13918,"##구려":13919,"##대변인":13920,"몇백":13921,"필리":13922,"하다니":13923,"김명":13924,"청와대에":13925,"##인간이":13926,"찢어":13927,"##수하고":13928,"상식이":13929,"싸게":13930,"##분을":13931,"사과를":13932,"김영":13933,"선관":13934,"소상공인":13935,"무소":13936,"##하실":13937,"##들면":13938,"##100":13939,"한두번":13940,"거리두기":13941,"##거든요":13942,"주장하는":13943,"당당하게":13944,"##렸는데":13945,"##우지":13946,"트집":13947,"인한":13948,"도데체":13949,"대로":13950,"댓글부대":13951,"목포":13952,"##판결":13953,"억지로":13954,"먹어":13955,"기자들":13956,"kbs":13957,"##부도":13958,"##갖고":13959,"##발언":13960,"철저하게":13961,"##부정":13962,"파렴치한":13963,"##적이지":13964,"##치도":13965,"가야지":13966,"코메디":13967,"맞나":13968,"수수":13969,"##맙시다":13970,"그만좀":13971,"답다":13972,"대구경북":13973,"제정신이":13974,"오랜":13975,"싫어서":13976,"철면피":13977,"가슴이":13978,"주댕":13979,"수구꼴통":13980,"시기에":13981,"두렵":13982,"IMF":13983,"##없으니":13984,"준다고":13985,"##였나":13986,"기원":13987,"법의":13988,"체포":13989,"완벽":13990,"##절한":13991,"##상관":13992,"국민들한테":13993,"나오는데":13994,"망쳐":13995,"##일텐데":13996,"이완":13997,"해골":13998,"##단을":13999,"##혼자":14000,"##메라":14001,"읽고":14002,"알겠다":14003,"못난":14004,"다해":14005,"세입":14006,"하나만":14007,"차이나":14008,"하든":14009,"##했을까":14010,"했고":14011,"다양":14012,"원자":14013,"찌그러":14014,"뻔히":14015,"선거때":14016,"따뜻":14017,"비밀":14018,"어마어마":14019,"명심":14020,"아니라면":14021,"당하는":14022,"까고":14023,"##세기":14024,"써야":14025,"조센징":14026,"수신":14027,"한방":14028,"사는데":14029,"##추어":14030,"##없나":14031,"유사":14032,"##준비":14033,"고문":14034,"##왔는데":14035,"뒤지":14036,"##선생":14037,"만원":14038,"했다는":14039,"##으려면":14040,"일본한테":14041,"학살":14042,"징계":14043,"##하겠습니다":14044,"즉각":14045,"조사해라":14046,"전세계가":14047,"##같아":14048,"##떨어진":14049,"##서에":14050,"안타까운":14051,"손잡고":14052,"방어":14053,"##지않는":14054,"믿음":14055,"대해서는":14056,"학부모":14057,"쓰러":14058,"대접":14059,"대가":14060,"등교":14061,"이인영":14062,"##동맹":14063,"31":14064,"##들이고":14065,"입이":14066,"##사무":14067,"담당":14068,"낙태":14069,"시골":14070,"되는지":14071,"해대":14072,"걷어":14073,"오면":14074,"6개월":14075,"나오냐":14076,"##우기":14077,"들어가서":14078,"잡는":14079,"저녁":14080,"##봅시다":14081,"빨갱이가":14082,"우상":14083,"##랑이":14084,"대법원":14085,"각자":14086,"가까운":14087,"선거에":14088,"일반인":14089,"지도자":14090,"갑니다":14091,"민주주의를":14092,"진실이":14093,"노인네":14094,"##리트":14095,"침몰":14096,"##경우":14097,"화이자":14098,"이번에는":14099,"치킨":14100,"국가와":14101,"##자격":14102,"##국회":14103,"##펀드":14104,"징글징글":14105,"나발":14106,"좋으면":14107,"말이지":14108,"##지오":14109,"은퇴":14110,"끝나고":14111,"##우파":14112,"##아먹는":14113,"##미군":14114,"부정부":14115,"##시급":14116,"##력으로":14117,"들어갈":14118,"##래요":14119,"죽어야":14120,"##겠음":14121,"관심이":14122,"동조":14123,"100만원":14124,"많아요":14125,"때려잡":14126,"하다하다":14127,"신념":14128,"강력하게":14129,"사탄":14130,"그때는":14131,"만들면":14132,"마스크를":14133,"##에서만":14134,"자슥":14135,"기다려":14136,"##2시간":14137,"숫자":14138,"나은":14139,"넘이":14140,"원내":14141,"##세계":14142,"##옵니다":14143,"사냐":14144,"남들":14145,"##찍고":14146,"걸러":14147,"준다":14148,"될듯":14149,"##처먹고":14150,"고통을":14151,"장례":14152,"언론은":14153,"후에":14154,"쳐먹고":14155,"비웃":14156,"##or":14157,"부칸":14158,"빠른":14159,"모자라":14160,"양성":14161,"새끼들이":14162,"만들지":14163,"22":14164,"정부탓":14165,"방구석":14166,"##어디":14167,"##갈등":14168,"##층이":14169,"##위반":14170,"여당이":14171,"민주당만":14172,"오바":14173,"최소한의":14174,"안사":14175,"생각해보":14176,"흘러":14177,"배급":14178,"##나온":14179,"잘했다고":14180,"##하루":14181,"##민들":14182,"혁신":14183,"##개는":14184,"예의":14185,"못함":14186,"이땅":14187,"없던":14188,"보이는데":14189,"있어야지":14190,"맞냐":14191,"쿠팡":14192,"현실은":14193,"문통이":14194,"다음은":14195,"##놀이":14196,"썩어빠진":14197,"##났는데":14198,"##희롱":14199,"##까리":14200,"##자료":14201,"됐다":14202,"안남":14203,"변태":14204,"잡을":14205,"##되었다":14206,"청와대는":14207,"##생겼":14208,"소용":14209,"##사항":14210,"짖어":14211,"##유지":14212,"공기업":14213,"집주":14214,"이쁘":14215,"슈퍼":14216,"못하냐":14217,"##없냐":14218,"깨어":14219,"##달창":14220,"엘지":14221,"##집에서":14222,"장군":14223,"결론은":14224,"##퓰리즘":14225,"##으로도":14226,"보좌":14227,"지자체":14228,"##것이고":14229,"##욕을":14230,"손을":14231,"기획":14232,"나빠":14233,"사람들의":14234,"돈주고":14235,"망하는":14236,"너그":14237,"무한":14238,"##었지만":14239,"얼굴이":14240,"신천지는":14241,"손바닥":14242,"파헤":14243,"##훼손":14244,"##분의":14245,"##가진":14246,"지은":14247,"라면":14248,"##기와":14249,"##배상":14250,"유일한":14251,"피곤":14252,"##질에":14253,"지킬":14254,"대대":14255,"희망이":14256,"까는":14257,"걸리":14258,"##구는":14259,"공소":14260,"할머니들":14261,"##페미":14262,"양산":14263,"즉시":14264,"상속":14265,"나갈":14266,"그대":14267,"하더라":14268,"못하지":14269,"##논리":14270,"좌파들의":14271,"전부다":14272,"##인거지":14273,"일하고":14274,"아내":14275,"##싫어":14276,"##국에서":14277,"##간의":14278,"있으":14279,"힘들고":14280,"그의":14281,"시발":14282,"허경영":14283,"짜증난다":14284,"있으니까":14285,"##ct":14286,"##뒤에":14287,"전범":14288,"싶네요":14289,"##들어서":14290,"해외여행":14291,"통화":14292,"조차":14293,"상위":14294,"생각하지":14295,"##거늘":14296,"##되길":14297,"아들은":14298,"##문재인":14299,"##수에":14300,"차명":14301,"##해질":14302,"##인멸":14303,"##같음":14304,"살아서":14305,"##세끼":14306,"##달고":14307,"저럴":14308,"날려":14309,"실체":14310,"넣어":14311,"잡혀":14312,"##복지":14313,"아스트라":14314,"단체로":14315,"##다니엘":14316,"##놈을":14317,"혹은":14318,"##정으로":14319,"##하의":14320,"최대한":14321,"의한":14322,"반역":14323,"때도":14324,"설득":14325,"3억":14326,"수요":14327,"남조선":14328,"극단":14329,"편파":14330,"아니죠":14331,"하는가":14332,"이언주":14333,"하겠냐":14334,"##사관":14335,"##올려":14336,"듣는":14337,"##셨네":14338,"##가격":14339,"우리를":14340,"1호":14341,"사과하고":14342,"미래통합":14343,"자금":14344,"##취소":14345,"문제야":14346,"빨갱이들이":14347,"국회의원들":14348,"서류":14349,"것임":14350,"이재명이":14351,"공범":14352,"민주당을":14353,"살해":14354,"많았":14355,"잘해라":14356,"기사로":14357,"##실패":14358,"##회담":14359,"주작":14360,"연애":14361,"하고는":14362,"들어갔":14363,"주머니":14364,"##스를":14365,"추락":14366,"쉬운":14367,"같으면":14368,"##보로":14369,"다른데":14370,"좌파의":14371,"내란":14372,"##세에":14373,"지어":14374,"저능아":14375,"것만":14376,"##두면":14377,"개돼지들은":14378,"##하진":14379,"죄인이":14380,"차이가":14381,"##내기":14382,"고쳐":14383,"들어가는":14384,"마이너스":14385,"##대면":14386,"모름":14387,"##자라":14388,"수상":14389,"##거니":14390,"생겼네":14391,"군대가":14392,"어쨌":14393,"##동원":14394,"##전부터":14395,"자체를":14396,"관심도":14397,"비트":14398,"패스트":14399,"2천":14400,"백성":14401,"##하고있네":14402,"그러고도":14403,"##차고":14404,"가치가":14405,"최초":14406,"맞아요":14407,"##립시다":14408,"망치":14409,"##사람을":14410,"박지원":14411,"서울에":14412,"##안보":14413,"##리려고":14414,"추하다":14415,"발견":14416,"만족":14417,"살길":14418,"무상":14419,"뭐하고":14420,"누구냐":14421,"없으면서":14422,"탈을":14423,"청와대에서":14424,"먼저다":14425,"##하는걸":14426,"정신차려":14427,"해외로":14428,"올릴":14429,"터진":14430,"깨진":14431,"김정숙":14432,"##무능":14433,"죽게":14434,"저런거":14435,"개인이":14436,"국민세금으로":14437,"욕할":14438,"뉴스에":14439,"놓은":14440,"집이":14441,"나팔":14442,"기어나":14443,"##많다":14444,"안좋은":14445,"소수":14446,"김진태":14447,"##봐서":14448,"페미니":14449,"오리":14450,"맞는거":14451,"피해가":14452,"##고만":14453,"대통령과":14454,"주차":14455,"고대":14456,"##전이":14457,"똑똑한":14458,"헌금":14459,"법적으로":14460,"##센트":14461,"하던가":14462,"정권바뀌":14463,"##교체":14464,"글고":14465,"##문서":14466,"연관":14467,"악플러":14468,"베댓":14469,"##영화":14470,"한자리":14471,"강다니엘":14472,"한국당이":14473,"글로벌":14474,"한국인이":14475,"분들은":14476,"있는것":14477,"못배":14478,"눈깔":14479,"##당으로":14480,"##만들고":14481,"근처":14482,"피눈물":14483,"있긴":14484,"세균":14485,"##스는":14486,"그땐":14487,"작성":14488,"수용":14489,"강아지":14490,"머가리":14491,"##소리를":14492,"대리":14493,"앞잡이":14494,"##못차":14495,"##넘어":14496,"##대해":14497,"##산이":14498,"사회에서":14499,"##조금":14500,"골프":14501,"수두":14502,"##없애":14503,"동급":14504,"한녀":14505,"개정":14506,"본인들이":14507,"##수작":14508,"북한에서":14509,"국무":14510,"더럽다":14511,"채용":14512,"증거인멸":14513,"교회가":14514,"쩝쩝이":14515,"웃겨":14516,"사이코":14517,"하신":14518,"부정부패":14519,"##자라고":14520,"##간다고":14521,"##던거":14522,"부끄러움":14523,"##이름":14524,"이렇":14525,"유족":14526,"입장에서":14527,"한국당은":14528,"##와도":14529,"현실이":14530,"##규모":14531,"##면허":14532,"카톡":14533,"날아":14534,"오를":14535,"숨어":14536,"##짓은":14537,"##지냐":14538,"##풀이":14539,"이뤄":14540,"##변호사":14541,"받는다":14542,"따라서":14543,"##였지":14544,"##되네":14545,"정의연":14546,"##력은":14547,"##자들에게":14548,"##맞아":14549,"형평":14550,"많습니다":14551,"##봤는데":14552,"여유":14553,"복귀":14554,"야비":14555,"명확":14556,"##버리는":14557,"##청구":14558,"하시는":14559,"성희롱":14560,"마스크도":14561,"##학대":14562,"공산당이":14563,"망치고":14564,"##통을":14565,"##형이":14566,"눈물이":14567,"##향이":14568,"35":14569,"싶네":14570,"산불":14571,"다닌":14572,"##할것이다":14573,"그날":14574,"새끼야":14575,"이번에도":14576,"##려구":14577,"안찍":14578,"김성":14579,"신분":14580,"실질":14581,"바뀐":14582,"##보유":14583,"유투브":14584,"어릴":14585,"##한것도":14586,"##낭비":14587,"##죄를":14588,"나와도":14589,"유흥":14590,"인간도":14591,"그릇":14592,"울나라":14593,"##내내":14594,"##권분":14595,"##부터가":14596,"곳에":14597,"##이란걸":14598,"가세요":14599,"내보내":14600,"##친일":14601,"자빠졌":14602,"##병이":14603,"지역감정":14604,"##이들은":14605,"##총장이":14606,"기회를":14607,"광복":14608,"퍼주고":14609,"지키는":14610,"아시":14611,"##릅니다":14612,"사모":14613,"나갔":14614,"##근성":14615,"허락":14616,"것이지":14617,"등록":14618,"공화":14619,"저런걸":14620,"지나가":14621,"좋을":14622,"##주사":14623,"쓰레기들이":14624,"일만":14625,"남편이":14626,"힘든데":14627,"뜻을":14628,"또라":14629,"있기":14630,"회사가":14631,"##님도":14632,"인격":14633,"##인양":14634,"당신을":14635,"정치검찰":14636,"거임":14637,"##고기":14638,"사건이":14639,"진실은":14640,"억울한":14641,"##사들":14642,"하늘이":14643,"입다":14644,"반일감정":14645,"##버는":14646,"##식은":14647,"##하기는":14648,"##박살":14649,"채널":14650,"시설":14651,"키우는":14652,"물러나":14653,"##보니까":14654,"##주라":14655,"줄줄이":14656,"##대지":14657,"##년동안":14658,"꿈꾸":14659,"##집은":14660,"초등학생":14661,"##질환":14662,"동영상":14663,"##니가":14664,"문재인씨":14665,"이때":14666,"배가":14667,"박범":14668,"##에대한":14669,"##만든":14670,"##이겠지":14671,"전직":14672,"잘해서":14673,"##한텐":14674,"앞세":14675,"##사냐":14676,"사건을":14677,"##했겠지":14678,"나몰":14679,"인생을":14680,"맞추":14681,"부채":14682,"공안":14683,"순진":14684,"개도":14685,"##거운":14686,"##했다가":14687,"정의롭":14688,"열어":14689,"##받아서":14690,"##명도":14691,"하나는":14692,"무관":14693,"##파탄":14694,"사람이다":14695,"계신":14696,"##치다":14697,"저항":14698,"거고":14699,"##애가":14700,"##사리":14701,"위하는":14702,"##거리가":14703,"하려면":14704,"##이군":14705,"잘못은":14706,"편향":14707,"##까진":14708,"##원으로":14709,"바꿔라":14710,"##르지":14711,"길을":14712,"##꺼냐":14713,"넘들이":14714,"쳐넣":14715,"지정":14716,"정의는":14717,"##질로":14718,"하는거야":14719,"너를":14720,"똥을":14721,"##저분":14722,"손절":14723,"시킬":14724,"의도가":14725,"##에나":14726,"민좃":14727,"##주나":14728,"물어뜯":14729,"심판을":14730,"##대갈":14731,"어려움":14732,"잠시":14733,"조카":14734,"까불":14735,"부역":14736,"주위":14737,"민정수석":14738,"깜방":14739,"##죄가":14740,"도박":14741,"봤는데":14742,"하나로":14743,"파는":14744,"밀고":14745,"유포":14746,"수두룩":14747,"찍고":14748,"유출":14749,"##었구나":14750,"안에":14751,"고객":14752,"있죠":14753,"아기":14754,"다물":14755,"것에":14756,"안중에도":14757,"들을":14758,"곱게":14759,"503":14760,"토왜":14761,"안봐도":14762,"##억이":14763,"##권은":14764,"##부인":14765,"##받아라":14766,"##부족":14767,"##평화":14768,"마당에":14769,"##지는데":14770,"날라":14771,"책임지고":14772,"##하던가":14773,"임종석":14774,"오해":14775,"##배로":14776,"##인지도":14777,"내용이":14778,"1차":14779,"지키고":14780,"##순위":14781,"##것지":14782,"딸은":14783,"안되니":14784,"##자빠":14785,"못잡":14786,"표현의":14787,"끝판":14788,"하루에":14789,"아무말":14790,"까발":14791,"출연":14792,"##인민":14793,"##이오":14794,"다르다":14795,"##리스":14796,"안타깝네요":14797,"##가니":14798,"지금처럼":14799,"욕도":14800,"##나올":14801,"시나":14802,"오죽하면":14803,"넘겨":14804,"##항공":14805,"##이드":14806,"전라도는":14807,"청탁":14808,"이용하는":14809,"전남":14810,"심상정":14811,"다닐":14812,"삼가":14813,"싶지":14814,"한숨":14815,"장제원":14816,"악랄":14817,"##고싶은":14818,"##들끼리":14819,"국고":14820,"되서":14821,"전수조사":14822,"죄없는":14823,"벌을":14824,"##디언":14825,"너희는":14826,"안희":14827,"2019":14828,"##장군":14829,"23":14830,"자는":14831,"믿지":14832,"##력도":14833,"성경":14834,"작살":14835,"진동":14836,"입원":14837,"주제":14838,"댓글알바":14839,"사람들에게":14840,"더불어공산당":14841,"달러":14842,"##소에":14843,"빤스":14844,"싶은데":14845,"##실한":14846,"##살다":14847,"소리는":14848,"생각해서":14849,"방법을":14850,"인종차별":14851,"##쓰면":14852,"주한미군":14853,"국민도":14854,"625":14855,"대부분이":14856,"비리가":14857,"가끔":14858,"##놈도":14859,"트럼프는":14860,"##되야":14861,"조국딸":14862,"있겠냐":14863,"청소년":14864,"뻔뻔하게":14865,"##2년":14866,"##재가":14867,"합니까":14868,"서초동":14869,"같고":14870,"##있는지":14871,"국민혈":14872,"잠깐":14873,"##카드":14874,"사퇴해라":14875,"##행이":14876,"분석":14877,"부작용":14878,"어디갔":14879,"##장사":14880,"##안한":14881,"네일베":14882,"##연구":14883,"국적":14884,"종북좌파":14885,"##궁창":14886,"드는":14887,"좋겠네":14888,"퇴직":14889,"##정에서":14890,"그걸로":14891,"책임이":14892,"##al":14893,"##되는게":14894,"빼돌":14895,"##절히":14896,"재인아":14897,"등에":14898,"##껀데":14899,"생각해봐라":14900,"##어로":14901,"탄핵이":14902,"제주":14903,"조씨":14904,"이런일이":14905,"##미는":14906,"겨울":14907,"만들려고":14908,"그려":14909,"용기":14910,"##하는것이":14911,"그렇다면":14912,"못하니":14913,"잡으면":14914,"포퓰리즘":14915,"정치판":14916,"발사":14917,"비해":14918,"틀니":14919,"선별":14920,"명품":14921,"개나소나":14922,"어때":14923,"##부에":14924,"유공":14925,"정도껏":14926,"##종일":14927,"##해보지":14928,"항공":14929,"##주는게":14930,"코로나는":14931,"폐업":14932,"싫고":14933,"나중":14934,"사고방":14935,"폐간":14936,"세계가":14937,"##될듯":14938,"개똥":14939,"똘똘":14940,"##배가":14941,"##공장":14942,"눈을":14943,"감독":14944,"민주노총":14945,"이러고":14946,"##안하면":14947,"##소에서":14948,"##난리":14949,"상품":14950,"구상권":14951,"우리나라를":14952,"말아먹고":14953,"의협":14954,"10만원":14955,"##문을":14956,"##한줄":14957,"책임질":14958,"조정":14959,"마시":14960,"일찍":14961,"일본여행":14962,"몇개":14963,"폭발":14964,"뭔소리":14965,"##ou":14966,"##하듯":14967,"##해야된다":14968,"허위사실":14969,"알면":14970,"##권분립":14971,"참고로":14972,"사고를":14973,"언론의":14974,"목숨걸고":14975,"##있을":14976,"처먹고":14977,"##넘들이":14978,"중고":14979,"상대방":14980,"##보인다":14981,"소주":14982,"##이잖아":14983,"오지네":14984,"재정":14985,"쓰레기같은":14986,"모르니":14987,"신상공개":14988,"있는거지":14989,"높아":14990,"법조":14991,"다녔":14992,"드립":14993,"만나서":14994,"당신들은":14995,"하이":14996,"법도":14997,"짜장":14998,"우울":14999,"수준의":15000,"##혐의":15001,"아랫":15002,"떨거지":15003,"##의혹":15004,"에게":15005,"해주고":15006,"거지같은":15007,"##안된다":15008,"어려울":15009,"와중에":15010,"스마트폰":15011,"눈감":15012,"사람으로":15013,"##하던지":15014,"구속수사":15015,"안타까":15016,"##로써":15017,"몰락":15018,"듣보":15019,"##과의":15020,"수수료":15021,"##바람":15022,"떠나라":15023,"누구도":15024,"사회악":15025,"##신은":15026,"바보로":15027,"했지만":15028,"뭐래":15029,"##환경":15030,"정신들":15031,"심한":15032,"된거":15033,"##것입니다":15034,"부러":15035,"늦게":15036,"##전을":15037,"##군데":15038,"죽는다":15039,"말든":15040,"입에서":15041,"##위병":15042,"달리":15043,"광화문에":15044,"법과":15045,"##지금":15046,"일에":15047,"##상승":15048,"듣기":15049,"작품":15050,"이제부터":15051,"자기편":15052,"안쓰고":15053,"기각":15054,"설레":15055,"할텐데":15056,"다니고":15057,"비트코":15058,"##동이":15059,"##식의":15060,"동아":15061,"싫어요":15062,"전환":15063,"도발":15064,"사고가":15065,"아작":15066,"기간":15067,"##대국":15068,"##냅시다":15069,"인원":15070,"##tbc":15071,"##ar":15072,"##계는":15073,"물러나라":15074,"##아야지":15075,"생길":15076,"되도":15077,"같지":15078,"옳고":15079,"보여주기":15080,"##탄압":15081,"##나봐":15082,"##아래":15083,"프로그램":15084,"단독":15085,"스포":15086,"도쿄":15087,"길이":15088,"하시고":15089,"##감이다":15090,"##배를":15091,"알아야지":15092,"카메라":15093,"괴물":15094,"화장실":15095,"수사권":15096,"언플":15097,"공수처가":15098,"생기면":15099,"##여러분":15100,"차리":15101,"해야할":15102,"##로부터":15103,"선물":15104,"##지라":15105,"평양":15106,"나가는":15107,"##들만의":15108,"##돈을":15109,"##해서는":15110,"##드네":15111,"##아웃":15112,"생각함":15113,"아픔":15114,"궤변":15115,"노후":15116,"##그렇게":15117,"##처분":15118,"##으시":15119,"버려":15120,"##구를":15121,"안함":15122,"선생님":15123,"정은이가":15124,"죽을때까지":15125,"편히":15126,"연설":15127,"##시키자":15128,"##차례":15129,"인공":15130,"정규직":15131,"형사":15132,"지켜야":15133,"공중":15134,"세상에서":15135,"붕괴":15136,"무장":15137,"권력이":15138,"납득":15139,"##게이트":15140,"##안해":15141,"직원들":15142,"##00만원":15143,"##했구나":15144,"먹으면":15145,"개돼지들아":15146,"##우선":15147,"자산":15148,"선진":15149,"한국도":15150,"뒷통수":15151,"##디오":15152,"##60":15153,"##시도":15154,"요금":15155,"가격이":15156,"##조는":15157,"그치":15158,"##일이다":15159,"윤지오":15160,"저질러":15161,"내년에":15162,"미국을":15163,"때리고":15164,"폭로":15165,"마니":15166,"##대통령이":15167,"삼성은":15168,"정치인들이":15169,"##기기":15170,"궁금하네":15171,"##있어서":15172,"워낙":15173,"아는게":15174,"이름을":15175,"대기":15176,"개거품":15177,"##것냐":15178,"이들이":15179,"들통":15180,"없애야":15181,"검사가":15182,"##겟네":15183,"무시하는":15184,"교회는":15185,"##깨문":15186,"되게":15187,"득실":15188,"이상하게":15189,"그러는":15190,"수는":15191,"정치꾼":15192,"역사의":15193,"이런데도":15194,"그들":15195,"주체":15196,"말과":15197,"별거":15198,"좌빨들은":15199,"3천":15200,"은폐":15201,"생존":15202,"##만명이":15203,"##열면":15204,"어디다":15205,"가까이":15206,"토나온다":15207,"댓글은":15208,"이름으로":15209,"##대출":15210,"결코":15211,"노망":15212,"원내대표":15213,"신중":15214,"##키들":15215,"##방해":15216,"##더나":15217,"노출":15218,"뭘까":15219,"생각만":15220,"아닌것":15221,"ㅡㅡㅡ":15222,"성별":15223,"훠훠훠":15224,"아휴":15225,"##소서":15226,"세상은":15227,"하나가":15228,"죽었다":15229,"탄생":15230,"알수":15231,"자라":15232,"어려워":15233,"스펙":15234,"무덤":15235,"##성으로":15236,"##퓨터":15237,"하던지":15238,"##남용":15239,"정신못차":15240,"나라와":15241,"없게":15242,"##스러워":15243,"알면서도":15244,"##어야한다":15245,"##사의":15246,"정신승리":15247,"종전":15248,"##세여":15249,"일어난":15250,"##집이":15251,"##당에서":15252,"막상":15253,"##찬다":15254,"몰랐다":15255,"문재앙의":15256,"보낼":15257,"지저분":15258,"##졌다고":15259,"##양아치":15260,"추구":15261,"##그럼":15262,"여긴":15263,"##있는거":15264,"안그래도":15265,"불구하고":15266,"소리하네":15267,"선언":15268,"실컷":15269,"##덕에":15270,"고마워":15271,"제발좀":15272,"대깨문들이":15273,"여가부":15274,"끝내":15275,"##들지":15276,"요양":15277,"돌아간다":15278,"증거를":15279,"##더군요":15280,"##같지도":15281,"교주":15282,"모독":15283,"지랄을":15284,"필리핀":15285,"자들":15286,"기준이":15287,"쓰레기가":15288,"안되냐":15289,"나의":15290,"문준":15291,"이번기":15292,"소환":15293,"많으니":15294,"예방":15295,"한통":15296,"바쁜":15297,"모자란":15298,"망치는":15299,"많을":15300,"고의":15301,"##아내":15302,"진술":15303,"저것들은":15304,"웃겠다":15305,"서민들은":15306,"했을까":15307,"크다":15308,"##줬으면":15309,"내주":15310,"에혀":15311,"부품":15312,"##속도로":15313,"점령":15314,"힘없는":15315,"따져":15316,"##려니":15317,"유통":15318,"걸릴":15319,"온다":15320,"했음":15321,"정수기":15322,"저렴":15323,"일어날":15324,"여름":15325,"추모":15326,"##규제":15327,"##길이":15328,"니도":15329,"세계에서":15330,"##한사람":15331,"못가":15332,"원망":15333,"지지한다":15334,"독재정권":15335,"기사화":15336,"팍팍":15337,"중국도":15338,"한계":15339,"##업자득":15340,"##스라":15341,"##보면서":15342,"장애인":15343,"측근":15344,"##선에서":15345,"##할머니":15346,"우방":15347,"형량":15348,"왜케":15349,"사랑하는":15350,"##었을까":15351,"아까운":15352,"개혁을":15353,"##급한":15354,"##모르는":15355,"집사":15356,"정부도":15357,"하나님이":15358,"##일때":15359,"이것들아":15360,"질본":15361,"쪽발이":15362,"경제도":15363,"잠재":15364,"시궁창":15365,"2억":15366,"꼬라지가":15367,"이것은":15368,"희대의":15369,"##할때는":15370,"최저시급":15371,"살인자":15372,"이나라를":15373,"##예산":15374,"##시원":15375,"감수":15376,"##는걸":15377,"신호":15378,"팔아서":15379,"##도없는":15380,"몇달":15381,"##세력이":15382,"독감":15383,"싸워":15384,"와이프":15385,"마다":15386,"조구":15387,"퇴임":15388,"따지면":15389,"영장":15390,"##저런":15391,"문자":15392,"시켜서":15393,"##이용":15394,"##드냐":15395,"부류":15396,"##없게":15397,"되는게":15398,"##해줘야":15399,"뻔뻔함":15400,"비유":15401,"##화로":15402,"실행":15403,"마귀":15404,"우와":15405,"##못하게":15406,"어디가":15407,"##ㅂㄷ":15408,"놀라":15409,"##나오네":15410,"한마디도":15411,"150":15412,"치사":15413,"모인":15414,"같아서":15415,"버린":15416,"얘기를":15417,"##혁명":15418,"##일만":15419,"생각나네":15420,"##까지도":15421,"있는건":15422,"정권에서":15423,"입맛에":15424,"역쉬":15425,"그것을":15426,"생각하니":15427,"등장":15428,"박근혜때":15429,"##한듯":15430,"받아야지":15431,"##국인":15432,"자식을":15433,"##쩝쩝":15434,"안됐":15435,"유시민이":15436,"하려는":15437,"##인이라고":15438,"##가로":15439,"##봤냐":15440,"아베는":15441,"되야":15442,"되길":15443,"##좋다":15444,"영원한":15445,"##전환":15446,"##색이":15447,"##하더만":15448,"언제고":15449,"쥐어":15450,"개한":15451,"말이되냐":15452,"##사나":15453,"드럽게":15454,"##투리":15455,"##시스템":15456,"조사를":15457,"##국민들":15458,"몇천":15459,"민주화운동":15460,"안뽑":15461,"인민재판":15462,"##포기":15463,"없잖아":15464,"##순이":15465,"##번호":15466,"아오":15467,"##미로":15468,"##입학":15469,"##것임":15470,"얼마전":15471,"역사가":15472,"사람한테":15473,"합리적":15474,"세우":15475,"##트랙":15476,"##체크":15477,"가덕":15478,"##보가":15479,"저러고":15480,"##이면서":15481,"계좌":15482,"자업자득":15483,"봅시다":15484,"시각":15485,"맘충":15486,"보이냐":15487,"안심":15488,"국군":15489,"믿음이":15490,"사회를":15491,"최선을":15492,"뭐라도":15493,"지겨":15494,"과거에":15495,"##월에":15496,"김호":15497,"##구녕":15498,"하라는":15499,"지롤":15500,"손에":15501,"좋냐":15502,"##어버리고":15503,"##자마자":15504,"조국수호":15505,"대책을":15506,"되어서":15507,"생각하냐":15508,"모델":15509,"벗어":15510,"##빠는":15511,"박쥐":15512,"제로":15513,"직권":15514,"##훈련":15515,"확정":15516,"떨어져":15517,"입은":15518,"축구":15519,"부럽":15520,"무주택":15521,"증언":15522,"넣고":15523,"이완용":15524,"영감":15525,"ㅠㅠㅠ":15526,"올리지":15527,"##누가":15528,"입증":15529,"##답시고":15530,"결과를":15531,"##기전":15532,"인생이":15533,"국정원":15534,"##히면":15535,"##프레임":15536,"전달":15537,"수능":15538,"올려서":15539,"선동에":15540,"##랬다":15541,"의혹이":15542,"내용을":15543,"웃을":15544,"기울":15545,"것과":15546,"기여":15547,"않지만":15548,"##그라":15549,"천박한":15550,"##낸다":15551,"##말종":15552,"##카오":15553,"천벌을":15554,"공영":15555,"국방부":15556,"망하고":15557,"쪽빠리":15558,"앉혀":15559,"##이제":15560,"##회장":15561,"사건은":15562,"##중인데":15563,"실현":15564,"고유정":15565,"모르게":15566,"추미애가":15567,"우동":15568,"이기주의":15569,"부도":15570,"멋대로":15571,"되니까":15572,"##치냐":15573,"오르고":15574,"할지":15575,"빨고":15576,"고개":15577,"나이가":15578,"줄이고":15579,"##입장":15580,"저러니":15581,"##한거고":15582,"##하시네":15583,"##만하는":15584,"있다는게":15585,"사전투표":15586,"##려다":15587,"똥싸":15588,"많지":15589,"두려워":15590,"공통":15591,"안했":15592,"##편이":15593,"했더니":15594,"아침부터":15595,"있다니":15596,"써서":15597,"수신료":15598,"노동자":15599,"김현미":15600,"한방에":15601,"##생긴":15602,"경우가":15603,"뜬금":15604,"지나면":15605,"한대":15606,"어쩌면":15607,"좃국":15608,"##테니까":15609,"##맞는":15610,"교묘":15611,"##반하":15612,"보내야":15613,"무너뜨":15614,"콩밥":15615,"##렸으면":15616,"목적이":15617,"##보게":15618,"최종":15619,"왜이렇게":15620,"##한건데":15621,"골로":15622,"존경합니다":15623,"##년아":15624,"##주제에":15625,"##라는데":15626,"감소":15627,"않아요":15628,"떠드는":15629,"못하네":15630,"잘사는":15631,"어벙":15632,"나옴":15633,"나라경제":15634,"##주네":15635,"조현":15636,"##인해":15637,"##공격":15638,"##영이":15639,"반성하고":15640,"##듣는":15641,"##집어":15642,"모르면서":15643,"##데타":15644,"애국자":15645,"##투쟁":15646,"##11":15647,"야동":15648,"##그렇":15649,"바이든":15650,"건보":15651,"문재인이가":15652,"댓글로":15653,"필수":15654,"##남자":15655,"##해가":15656,"##리지말고":15657,"자유가":15658,"손실":15659,"막장":15660,"찍소리도":15661,"코로나를":15662,"##조심":15663,"정책은":15664,"##달러":15665,"엉뚱한":15666,"여적":15667,"##버릴":15668,"고정":15669,"경제적":15670,"중국한테":15671,"당이":15672,"평범한":15673,"##쪽에":15674,"바른말":15675,"거꾸로":15676,"단일화":15677,"듣지":15678,"##급이":15679,"지휘":15680,"##관광":15681,"하더라도":15682,"선거철":15683,"##요일":15684,"##시대에":15685,"##값을":15686,"내려와":15687,"정신차리고":15688,"호주":15689,"##장애":15690,"##해지고":15691,"그놈":15692,"언젠가":15693,"가는데":15694,"##개돼지":15695,"##매국노":15696,"선량한":15697,"해방":15698,"정도가":15699,"훼손":15700,"잘먹고":15701,"호소":15702,"초등학교":15703,"##안무":15704,"평소에":15705,"가수":15706,"개탄":15707,"##하기전에":15708,"짓은":15709,"개인적으로":15710,"위치":15711,"내면":15712,"국민에":15713,"니미":15714,"##임이":15715,"서울시민":15716,"아무튼":15717,"더더욱":15718,"회장":15719,"애는":15720,"##넘은":15721,"촉새":15722,"불행":15723,"등을":15724,"##본데":15725,"##라나":15726,"##공직":15727,"##정말":15728,"안락":15729,"남았":15730,"대부분의":15731,"말종":15732,"고급":15733,"협의":15734,"모르지만":15735,"다하고":15736,"장난하냐":15737,"어린이집":15738,"##이었다":15739,"수준으로":15740,"꼬박":15741,"살림":15742,"뭘로":15743,"기타":15744,"선거에서":15745,"주문":15746,"건너":15747,"##히지":15748,"좋겠어요":15749,"##일가":15750,"##읍니다":15751,"이해를":15752,"##해야죠":15753,"알바들":15754,"선택적":15755,"숨기고":15756,"전쟁을":15757,"##도한":15758,"##게요":15759,"사태가":15760,"했어야지":15761,"살수":15762,"##공부":15763,"노란":15764,"##공작":15765,"문재인정권":15766,"몇몇":15767,"배부":15768,"##만하다":15769,"이렇게까지":15770,"##가는게":15771,"맛이":15772,"구제":15773,"군대도":15774,"짜증나":15775,"파기":15776,"전락":15777,"학생들이":15778,"목을":15779,"말도안되는":15780,"##묻은":15781,"따른":15782,"묻고":15783,"새삼":15784,"##국당":15785,"기념":15786,"선심":15787,"##치는데":15788,"##태섭":15789,"지지하고":15790,"확대":15791,"동양대":15792,"예비":15793,"##와는":15794,"든든":15795,"텐데":15796,"##것인가":15797,"##팔아":15798,"제기":15799,"##가는거":15800,"은근":15801,"대깨문들아":15802,"##된다는":15803,"##할땐":15804,"##관을":15805,"떨고":15806,"디지":15807,"당신같은":15808,"유행":15809,"손님":15810,"이는":15811,"우리나라의":15812,"쇼를":15813,"화웨이":15814,"노인들":15815,"##파는":15816,"##나라로":15817,"시민들":15818,"유튜버":15819,"애들도":15820,"더러워":15821,"감추":15822,"평화를":15823,"##렸다고":15824,"태어난":15825,"##값이":15826,"국론":15827,"생겼다":15828,"사생활":15829,"나와야":15830,"촛불집회":15831,"어이없다":15832,"끝판왕":15833,"말하는거":15834,"보이네":15835,"##파이":15836,"##또한":15837,"명백한":15838,"토착왜구들":15839,"버리":15840,"적반하":15841,"##지켜":15842,"의견을":15843,"이탈리아":15844,"해고":15845,"홧팅":15846,"출동":15847,"##기레기":15848,"##패거리":15849,"사이다":15850,"미래는":15851,"##믿고":15852,"##전자":15853,"시나리오":15854,"허구헌":15855,"##퍼센트":15856,"##할꺼":15857,"여러가지":15858,"##힘들":15859,"백번":15860,"##법도":15861,"##유예":15862,"##미래":15863,"##까고":15864,"불통":15865,"느낌이":15866,"기저":15867,"할아버지":15868,"어쩌냐":15869,"지금껏":15870,"발상":15871,"가슴에":15872,"챙피":15873,"언론에서":15874,"이들은":15875,"보수의":15876,"임신":15877,"주말":15878,"##미사일":15879,"실명":15880,"수준을":15881,"##형을":15882,"줘도":15883,"개독교":15884,"2번":15885,"##받지":15886,"##할거면":15887,"밑에서":15888,"소위":15889,"놈들아":15890,"새끼들은":15891,"깔끔":15892,"종특":15893,"챙기는":15894,"##근무":15895,"관련된":15896,"사회의":15897,"##티비":15898,"##실에":15899,"어렵게":15900,"자식은":15901,"중국발":15902,"##감은":15903,"##들이냐":15904,"지지를":15905,"##있습니다":15906,"##분간":15907,"세무":15908,"쓰냐":15909,"##이만":15910,"때까지":15911,"##라우":15912,"솔까":15913,"정부야":15914,"명예훼손":15915,"형제":15916,"불로":15917,"틀어":15918,"죄지":15919,"##증상":15920,"아이디":15921,"##집안":15922,"안나온다":15923,"당연하지":15924,"재앙이다":15925,"말해라":15926,"간섭":15927,"여권":15928,"##다니고":15929,"##민당":15930,"여자들은":15931,"정황":15932,"개고생":15933,"하는거다":15934,"하필":15935,"광우병":15936,"오줌":15937,"오거":15938,"밀어붙":15939,"나경원은":15940,"##바꿔":15941,"보유세":15942,"않을까요":15943,"깨달":15944,"너만":15945,"##할수도":15946,"재건":15947,"도둑질":15948,"하겠다고":15949,"##났다고":15950,"ㅂㄷ":15951,"2000":15952,"다행이다":15953,"##할걸":15954,"가난한":15955,"계엄":15956,"팩트는":15957,"적게":15958,"신뢰가":15959,"민주당도":15960,"후안무":15961,"절차":15962,"쟤네":15963,"내내":15964,"순실이":15965,"사태를":15966,"대법원장":15967,"서서히":15968,"##잖은":15969,"금태섭":15970,"##분별":15971,"말하지":15972,"살펴":15973,"바꿀":15974,"교활한":15975,"신속":15976,"400":15977,"행동은":15978,"웃는다":15979,"혜택을":15980,"1번":15981,"##누구":15982,"##는지도":15983,"집단이":15984,"36":15985,"개는":15986,"계시":15987,"것들아":15988,"운전자":15989,"사라질":15990,"유학생":15991,"##기때문에":15992,"봐야지":15993,"3단계":15994,"닫고":15995,"김호중":15996,"빌붙":15997,"개소리를":15998,"##인데요":15999,"##안하는":16000,"미국으로":16001,"##잔치":16002,"호텔":16003,"아가":16004,"취직":16005,"나를":16006,"일본제품":16007,"애도":16008,"동시에":16009,"미워":16010,"하나씩":16011,"##판을":16012,"낯짝":16013,"분야":16014,"전통":16015,"접촉":16016,"##일까요":16017,"보이콧":16018,"게이":16019,"살아온":16020,"감염자":16021,"이적":16022,"##실험":16023,"싸지":16024,"생각없이":16025,"할매":16026,"생각하나":16027,"비율":16028,"매수":16029,"로또":16030,"접근":16031,"##충이":16032,"의지":16033,"컴퓨터":16034,"##줍시다":16035,"##소대가리":16036,"##도에":16037,"##드로":16038,"##구조":16039,"##대비":16040,"또다시":16041,"음성":16042,"##러니":16043,"단단":16044,"##리어":16045,"국민들만":16046,"그런말":16047,"쪼개":16048,"##집행":16049,"이번기회에":16050,"##할수있는":16051,"##혜택":16052,"힘으로":16053,"##드니":16054,"##5년":16055,"김무":16056,"사실이라면":16057,"##배우":16058,"추잡한":16059,"중산":16060,"후예":16061,"##인에게":16062,"##NS":16063,"##셨나":16064,"그돈으로":16065,"죽어서":16066,"하시길":16067,"국회에":16068,"인권을":16069,"북한도":16070,"수습":16071,"정당한":16072,"나몰라라":16073,"설레발":16074,"펑펑":16075,"##나갈":16076,"대마":16077,"##차이":16078,"##당도":16079,"홍위병":16080,"미안하다":16081,"##드립":16082,"부엉":16083,"##드나":16084,"아버지가":16085,"이와중에":16086,"비리를":16087,"최후":16088,"버는":16089,"다르게":16090,"##ㅎㅎㅎ":16091,"##죽이고":16092,"동포":16093,"하나라도":16094,"##평가":16095,"강제징":16096,"블랙리스트":16097,"하나하나":16098,"##기냐":16099,"만들어놓고":16100,"##지는게":16101,"저놈":16102,"##음을":16103,"떨어지고":16104,"오픈":16105,"마무리":16106,"모아서":16107,"드러운":16108,"이제서야":16109,"##됐네":16110,"한것":16111,"휘두":16112,"적와대":16113,"인건비":16114,"몇일":16115,"여론이":16116,"##소릴":16117,"5억":16118,"엄청나게":16119,"역사상":16120,"세습":16121,"침해":16122,"보나":16123,"최순실이":16124,"걱정이다":16125,"돌아오":16126,"통해서":16127,"##트롤":16128,"순실":16129,"재앙이는":16130,"보는데":16131,"##매한":16132,"하겠네":16133,"여자를":16134,"하겠다는":16135,"없으니까":16136,"허구헌날":16137,"##소수":16138,"신이":16139,"무법":16140,"잘돌아":16141,"##연이":16142,"기본적인":16143,"이스라":16144,"##하십니다":16145,"스포츠":16146,"##개로":16147,"일주일":16148,"교육을":16149,"##저래":16150,"골라":16151,"대상이":16152,"뒤질":16153,"##성향":16154,"것인지":16155,"##나오면":16156,"##유총":16157,"어쩐":16158,"똥인지":16159,"##스럽네":16160,"##7년":16161,"##이유가":16162,"##씨도":16163,"했다면":16164,"전공":16165,"해줘야":16166,"##넘게":16167,"안민":16168,"##더라고":16169,"노는":16170,"압도":16171,"대폭":16172,"##거네":16173,"##요금":16174,"효과가":16175,"##들갑":16176,"똥만":16177,"사유재산":16178,"##는거랑":16179,"건가요":16180,"파이팅":16181,"치졸":16182,"구체":16183,"하루종일":16184,"사재":16185,"가지가지한다":16186,"보입니다":16187,"##12":16188,"현기":16189,"##나와서":16190,"그리도":16191,"##나오는":16192,"##보상":16193,"멸망":16194,"쓰래기":16195,"생각으로":16196,"하는거냐":16197,"생계":16198,"노벨":16199,"차례":16200,"##짓이":16201,"녹취":16202,"어딘":16203,"한푼":16204,"사주":16205,"##으라는":16206,"##아비":16207,"그래요":16208,"검새":16209,"최선":16210,"몽둥":16211,"완성":16212,"정세":16213,"##하겠지만":16214,"##데기":16215,"##듯한":16216,"무단":16217,"##더라구요":16218,"이스라엘":16219,"##교통":16220,"올리면":16221,"시간을":16222,"##나가는":16223,"##아파":16224,"버릇":16225,"##되도":16226,"##하지는":16227,"공정하게":16228,"##이라는데":16229,"버리는":16230,"##진보":16231,"여자도":16232,"숨겨":16233,"##가에":16234,"한동":16235,"##들하고":16236,"다리":16237,"타다":16238,"몸에":16239,"국뽕":16240,"남자들이":16241,"저주":16242,"##녀가":16243,"천재":16244,"신도시":16245,"##없어요":16246,"정준":16247,"##아닌가요":16248,"잘만":16249,"##안다":16250,"##같은소리":16251,"다루":16252,"##갈이":16253,"무지한":16254,"연평":16255,"민심을":16256,"##럽고":16257,"##국방":16258,"강도":16259,"귀찮":16260,"삥뜯":16261,"공권력":16262,"역사는":16263,"돈받고":16264,"다수":16265,"코로나에":16266,"##할수가":16267,"##꾸라지":16268,"신종":16269,"좌빨들이":16270,"집도":16271,"##at":16272,"##시리":16273,"MBC":16274,"석열":16275,"변화":16276,"이상황":16277,"의학":16278,"정신차리":16279,"모를까":16280,"26":16281,"맞은":16282,"자식들이":16283,"안된다는":16284,"쳐맞":16285,"느꼈":16286,"철거":16287,"나쁜놈":16288,"비정규직":16289,"##보네요":16290,"정권바뀌면":16291,"우리집":16292,"내수":16293,"사법개혁":16294,"기억이":16295,"배불":16296,"들어온":16297,"정확하게":16298,"이모":16299,"고사":16300,"자기는":16301,"못하":16302,"피해는":16303,"털어서":16304,"##시키지":16305,"택시기사":16306,"카카오":16307,"편의점":16308,"신의":16309,"##했어야":16310,"##모르고":16311,"누구한테":16312,"안하지":16313,"그당시":16314,"좌파정권":16315,"강조":16316,"LH":16317,"비열한":16318,"문제지만":16319,"완장":16320,"거시기":16321,"뽑아준":16322,"##가야지":16323,"##하고있다":16324,"종자들":16325,"넘은":16326,"##서로":16327,"새퀴":16328,"한전":16329,"##하니깐":16330,"색깔":16331,"##80":16332,"구치소":16333,"잠잠":16334,"니네들":16335,"##짱깨":16336,"##받으면":16337,"그래놓고":16338,"다른건":16339,"모순":16340,"공개해라":16341,"말한마디":16342,"냄비":16343,"글쎄":16344,"빨개":16345,"##심한":16346,"하는건지":16347,"vs":16348,"방위비":16349,"생각해라":16350,"무엇인지":16351,"배워":16352,"관광객":16353,"작가":16354,"경남":16355,"##였다고":16356,"##ctv":16357,"타격":16358,"##하냐고":16359,"싶냐":16360,"##걸린":16361,"면제":16362,"##당해서":16363,"##질하는":16364,"않는데":16365,"잘하면":16366,"조로남불":16367,"선동하는":16368,"##죽일":16369,"시장이":16370,"모가지":16371,"기자는":16372,"##당해":16373,"미련":16374,"##생산":16375,"될것이다":16376,"왜들":16377,"소름끼":16378,"개혁이":16379,"치가":16380,"빌어":16381,"##가리고":16382,"정권교체":16383,"조국도":16384,"부모는":16385,"100년":16386,"개수작":16387,"##어린":16388,"못사":16389,"##지길":16390,"우째":16391,"활용":16392,"중재":16393,"바꾸고":16394,"프리":16395,"판을":16396,"머리는":16397,"맞아야":16398,"넘어서":16399,"##ㄹㄱ":16400,"##았지":16401,"##나보다":16402,"소재":16403,"정신병자들":16404,"말안":16405,"##식에":16406,"핵을":16407,"사람인데":16408,"해준":16409,"##인상":16410,"개성공":16411,"##he":16412,"공적":16413,"판에":16414,"##달라는":16415,"만들었":16416,"SNS":16417,"부를":16418,"선전선동":16419,"달아":16420,"괜찮은":16421,"느그들":16422,"에라":16423,"##무가":16424,"척결":16425,"문준용":16426,"민주당에서":16427,"##00원":16428,"그런데도":16429,"뭔지도":16430,"총장님":16431,"뽑는":16432,"##신분":16433,"개를":16434,"정도의":16435,"맞으면":16436,"취임":16437,"한유총":16438,"##표가":16439,"부럽다":16440,"##영호":16441,"만든다":16442,"라이":16443,"잡은":16444,"현직":16445,"비참":16446,"떡검":16447,"옆에서":16448,"오마이":16449,"거주":16450,"개웃":16451,"##줄도":16452,"##치않":16453,"##로도":16454,"갑시다":16455,"##겠고":16456,"반성해라":16457,"##노예":16458,"저소득":16459,"공사":16460,"삼권분립":16461,"죽여야":16462,"유독":16463,"패스트트랙":16464,"##증이":16465,"##써서":16466,"청렴":16467,"##바랍니다":16468,"##단체가":16469,"사과는":16470,"##접종":16471,"5000":16472,"##르르":16473,"##도없고":16474,"어이없네":16475,"소년":16476,"##새끼들이":16477,"죄는":16478,"##쟁이들":16479,"##모를":16480,"##내요":16481,"쓴다":16482,"손해배상":16483,"처형":16484,"따위":16485,"하자고":16486,"있던데":16487,"##뿐만":16488,"노트":16489,"실화":16490,"바뀔":16491,"자리에서":16492,"주요":16493,"##사과":16494,"부족한":16495,"버텨":16496,"##성화":16497,"설쳐":16498,"##라는걸":16499,"바꿔야":16500,"국가는":16501,"못하나":16502,"관여":16503,"언행":16504,"사실은":16505,"것인데":16506,"쓰레기는":16507,"피해자는":16508,"혐한":16509,"매매":16510,"안하나":16511,"##릴수":16512,"논리가":16513,"내놓고":16514,"자중":16515,"있을까요":16516,"##야당":16517,"스토":16518,"3대":16519,"##도시":16520,"이인간":16521,"##ㄱㄱ":16522,"##회의":16523,"모르네":16524,"지겹":16525,"성향":16526,"집값은":16527,"##주는데":16528,"성역":16529,"임마":16530,"믿는다":16531,"반발":16532,"짤라":16533,"##행사":16534,"총선에":16535,"회의":16536,"호들갑":16537,"##오니":16538,"##눈치":16539,"빌려":16540,"하실":16541,"아이들을":16542,"만드네":16543,"위법":16544,"없다면":16545,"##중의":16546,"떠들고":16547,"쓸모":16548,"ㅂㄷㅂㄷ":16549,"여기도":16550,"보궐":16551,"아닐까요":16552,"인력":16553,"##돌이":16554,"않았나":16555,"회담":16556,"##억씩":16557,"그립":16558,"##하시면":16559,"##끼야":16560,"##대에서":16561,"채워":16562,"##출산":16563,"남겨":16564,"앞서":16565,"##백신":16566,"##자랑":16567,"위하여":16568,"기능":16569,"본인도":16570,"굉장":16571,"맘카페":16572,"##했을때":16573,"당해":16574,"아니겠지":16575,"충청":16576,"기사도":16577,"조선일보는":16578,"증여":16579,"하지도":16580,"사람이냐":16581,"##돈은":16582,"##덩이":16583,"숙청":16584,"##만개":16585,"성격":16586,"올려라":16587,"기상":16588,"벤츠":16589,"##잡는":16590,"##HO":16591,"##다닐":16592,"##별로":16593,"짱께":16594,"사안":16595,"떨어뜨":16596,"가리":16597,"##금으로":16598,"줄서":16599,"##리는건":16600,"일등":16601,"대상으로":16602,"인정하는":16603,"##댄다":16604,"허수":16605,"호도":16606,"배워라":16607,"이상이":16608,"##건강":16609,"보임":16610,"원조":16611,"##om":16612,"9시":16613,"잘한다고":16614,"어떠한":16615,"예측":16616,"공산주의자":16617,"기사라고":16618,"##제재":16619,"앞으로는":16620,"많으면":16621,"유엔":16622,"일본에게":16623,"틀림":16624,"안팔":16625,"##탱이":16626,"##랄까봐":16627,"당할":16628,"보일":16629,"가벼":16630,"박통":16631,"온국민이":16632,"그런다고":16633,"##될까":16634,"노조가":16635,"살려고":16636,"윤총장님":16637,"골라서":16638,"이러한":16639,"싫지만":16640,"무개념":16641,"유도":16642,"숨쉬":16643,"##전한":16644,"이름이":16645,"##받는다":16646,"저번":16647,"비아":16648,"##종자":16649,"ㄷㅅ":16650,"##억원":16651,"##그랬":16652,"##피셜":16653,"##만봐도":16654,"증말":16655,"##는건가요":16656,"의원들":16657,"의료보험":16658,"적폐로":16659,"경험하지":16660,"ㄷㄷㄷ":16661,"경계":16662,"##고발":16663,"거짓으로":16664,"이전에":16665,"시원하게":16666,"뻔한":16667,"팩트를":16668,"기계":16669,"##고가":16670,"소중한":16671,"##이는데":16672,"##방에서":16673,"2월":16674,"현실이다":16675,"북핵":16676,"3번":16677,"다른사람":16678,"왜놈":16679,"황대표":16680,"##우니":16681,"##되어서":16682,"##문제가":16683,"다르지":16684,"입만열면":16685,"죽었는데":16686,"##진영":16687,"하루하루":16688,"지킨":16689,"뽑아서":16690,"##해달라고":16691,"도배":16692,"도지사":16693,"뒷북":16694,"정책으로":16695,"3일":16696,"##인정":16697,"##사용":16698,"마음으로":16699,"직무유":16700,"##뭐냐":16701,"##통제":16702,"##채로":16703,"난민":16704,"저것도":16705,"술집":16706,"##그로":16707,"처벌해야":16708,"실업자":16709,"주호":16710,"해봐야":16711,"##질만":16712,"밥은":16713,"##바이":16714,"상관없이":16715,"미쳤다":16716,"##받게":16717,"##나라에서":16718,"군부":16719,"사살":16720,"삭감":16721,"##상의":16722,"바이러스가":16723,"전체가":16724,"##일당":16725,"스티":16726,"##면제":16727,"제작":16728,"가로":16729,"창출":16730,"엄한":16731,"전투":16732,"속이고":16733,"지들도":16734,"한국인들":16735,"##것에":16736,"##학년":16737,"시계":16738,"간절히":16739,"했어야":16740,"정신차릴":16741,"법에":16742,"##미친":16743,"규정":16744,"되는거지":16745,"장하":16746,"않네":16747,"나발이고":16748,"##다닌":16749,"있었으면":16750,"방송에서":16751,"꺼내":16752,"못사는":16753,"##주에":16754,"##물로":16755,"전재산":16756,"병원에":16757,"아마추어":16758,"##건만":16759,"너부터":16760,"##트가":16761,"일본가서":16762,"있겠지만":16763,"##하다면":16764,"고마해라":16765,"##다르":16766,"했어":16767,"27":16768,"##였냐":16769,"대전":16770,"봐주":16771,"황교안은":16772,"사라져라":16773,"그밥":16774,"가는게":16775,"들어와서":16776,"새기":16777,"중대":16778,"저지르고":16779,"##인지는":16780,"인간말종":16781,"피가":16782,"패스":16783,"석탄":16784,"##나라에":16785,"##었어요":16786,"나가라":16787,"##안에서":16788,"##구장":16789,"국격":16790,"##게임":16791,"##물은":16792,"끼고":16793,"##들인":16794,"글구":16795,"되잖아":16796,"소리만":16797,"약한":16798,"눈에는":16799,"잡아야":16800,"##어를":16801,"문통은":16802,"살리":16803,"##인과":16804,"고로":16805,"할수있는":16806,"내지":16807,"구별":16808,"금수저":16809,"김성태":16810,"짓밟":16811,"종로":16812,"검사를":16813,"기준으로":16814,"##자꾸":16815,"##꼬박":16816,"국립":16817,"하나의":16818,"인구가":16819,"이슬람":16820,"손바닥으로":16821,"##해지는":16822,"어설":16823,"속아":16824,"##있어요":16825,"있었나":16826,"참가":16827,"##위원장":16828,"수준이다":16829,"##자들도":16830,"비싸게":16831,"수소":16832,"유권":16833,"따르":16834,"##잖냐":16835,"##목숨":16836,"많다고":16837,"없었으면":16838,"현혹":16839,"현대차":16840,"##하기를":16841,"분노가":16842,"그간":16843,"민심이":16844,"##했어야지":16845,"범죄자가":16846,"왕창":16847,"##였구나":16848,"댓글달":16849,"이쁜":16850,"##법에":16851,"60대":16852,"실검":16853,"##폐기":16854,"개돼":16855,"여론몰이":16856,"학교에서":16857,"법인":16858,"어지간히":16859,"##안한다":16860,"어렵다":16861,"차리고":16862,"##무새":16863,"동료":16864,"떨어지면":16865,"북한군":16866,"##선에":16867,"##생각을":16868,"평화가":16869,"터질":16870,"숨기":16871,"그린":16872,"중국인이":16873,"##는거는":16874,"##부담":16875,"쫓아":16876,"필요합니다":16877,"검찰개혁을":16878,"겪어":16879,"안에서":16880,"싸울":16881,"이런말":16882,"찌그러져":16883,"증오":16884,"안죽":16885,"##라면서":16886,"박사모":16887,"폭파":16888,"삶이":16889,"고위공직":16890,"경험해보지":16891,"다신":16892,"되나요":16893,"주의":16894,"개누리":16895,"65":16896,"##질하고":16897,"지럴":16898,"그다음":16899,"##구야":16900,"##지들":16901,"##심에":16902,"댓가를":16903,"받으":16904,"##된게":16905,"##버리면":16906,"단순히":16907,"##진게":16908,"돼지로":16909,"##했잖아":16910,"저들이":16911,"둘러":16912,"한민족":16913,"문제냐":16914,"그런게":16915,"수행":16916,"쓰레기들아":16917,"문재앙을":16918,"할게":16919,"니들끼리":16920,"김영삼":16921,"쳐박":16922,"싸고":16923,"##마시고":16924,"##져야지":16925,"또다른":16926,"##나쁜":16927,"##도와":16928,"우기":16929,"의사들이":16930,"나팔수":16931,"튀어나":16932,"##많네":16933,"쉽지":16934,"나머지는":16935,"##해줘":16936,"응징":16937,"##안하냐":16938,"흑인":16939,"키운":16940,"이상하다":16941,"실시":16942,"정보를":16943,"끝났다":16944,"##같은거":16945,"굽신":16946,"미화":16947,"2중대":16948,"답답한":16949,"안고":16950,"개소리야":16951,"오늘은":16952,"##물어":16953,"배고":16954,"정청":16955,"##호식":16956,"물리":16957,"##동생":16958,"##올리고":16959,"##질이나":16960,"##셨으면":16961,"밝히고":16962,"논리로":16963,"못하는데":16964,"##심은":16965,"##속이":16966,"4차":16967,"친박":16968,"##un":16969,"공인":16970,"뿌려":16971,"들어가면":16972,"듣보잡":16973,"김여":16974,"싸우고":16975,"축소":16976,"제3":16977,"외국에서":16978,"추장관":16979,"##세다":16980,"있을때":16981,"귀걸이":16982,"집행유예":16983,"##의원이":16984,"예를":16985,"우익":16986,"##더기":16987,"퇴근":16988,"안통":16989,"하수인":16990,"고졸":16991,"있으면서":16992,"김원봉":16993,"차가":16994,"혈안이":16995,"##들에게는":16996,"기업은":16997,"열등감":16998,"개성공단":16999,"임시":17000,"명박":17001,"의원님":17002,"문죄인은":17003,"##무지":17004,"한동훈":17005,"찾아서":17006,"##당할":17007,"##트로":17008,"##제네":17009,"유재":17010,"적화통일":17011,"검은":17012,"후배":17013,"감방에":17014,"김명수":17015,"악용":17016,"##려야한다":17017,"태영호":17018,"사모펀드":17019,"##해진다":17020,"안막":17021,"##연합":17022,"내라":17023,"안일":17024,"이왕":17025,"기업을":17026,"##보를":17027,"말입니다":17028,"그들을":17029,"대량":17030,"거대":17031,"아름다운":17032,"간첩이":17033,"소각":17034,"교통사고":17035,"형편":17036,"정상이":17037,"쓰나":17038,"영향을":17039,"말투":17040,"징그":17041,"단계":17042,"##끼가":17043,"##많아":17044,"될거":17045,"##명으로":17046,"자들은":17047,"있니":17048,"보이고":17049,"54":17050,"신앙":17051,"안그러":17052,"살다가":17053,"사퇴하고":17054,"앞뒤가":17055,"남에게":17056,"밖에서":17057,"##소리가":17058,"자신들이":17059,"서해":17060,"문제로":17061,"내뱉":17062,"참모":17063,"긍정":17064,"##거죠":17065,"안가고":17066,"시장경제":17067,"미쳤네":17068,"외부":17069,"하태":17070,"마스크는":17071,"주둔":17072,"시민들이":17073,"##몰라":17074,"바보가":17075,"##해야하는":17076,"대책이":17077,"종부":17078,"판결을":17079,"##권도":17080,"검찰과":17081,"이고":17082,"##기부":17083,"닭그네":17084,"선조":17085,"##걸리":17086,"가볍":17087,"새해":17088,"##쓰네":17089,"될수":17090,"검찰수사":17091,"구글":17092,"아나운":17093,"##금은":17094,"주거":17095,"##되는지":17096,"##따구로":17097,"일으킨":17098,"뉴스를":17099,"지긋지긋하다":17100,"주적":17101,"##인거야":17102,"겸손":17103,"심하게":17104,"남발":17105,"색출":17106,"3월":17107,"##실에서":17108,"##대신":17109,"약국":17110,"다운":17111,"칼을":17112,"처벌이":17113,"집은":17114,"둘째":17115,"머냐":17116,"올라가":17117,"이제라도":17118,"않도록":17119,"치밀":17120,"쌍욕":17121,"사대":17122,"살아가는":17123,"##촉새":17124,"대깨문이":17125,"##자한당":17126,"길게":17127,"가시":17128,"싫다고":17129,"##니까요":17130,"##린지":17131,"##살고":17132,"군림":17133,"##등급":17134,"도움을":17135,"##직을":17136,"##투사":17137,"##위조":17138,"##부랭":17139,"지고":17140,"##런지":17141,"뿐만":17142,"##종북":17143,"북돼지":17144,"##아니야":17145,"짝이":17146,"##식도":17147,"하고싶은":17148,"보내는":17149,"분위":17150,"많은지":17151,"울고":17152,"##중요":17153,"##의료":17154,"추악":17155,"불법을":17156,"실시간":17157,"김재":17158,"##트를":17159,"소설을":17160,"##제발":17161,"황제":17162,"걱정된다":17163,"적극적으로":17164,"##NA":17165,"기분이":17166,"체육":17167,"3개월":17168,"역풍":17169,"안하는데":17170,"신용":17171,"언젠가는":17172,"##그대로":17173,"##이하":17174,"##심으로":17175,"##해결":17176,"백날":17177,"이태":17178,"2020년":17179,"우리에게":17180,"역할을":17181,"내로남불의":17182,"1주택":17183,"안희정":17184,"중요한게":17185,"##책을":17186,"##여당":17187,"당해도":17188,"##해져":17189,"45":17190,"할것이다":17191,"대학교":17192,"애완":17193,"조성":17194,"최강욱":17195,"떠넘":17196,"똥줄":17197,"정치인들은":17198,"눈먼":17199,"여지":17200,"구성":17201,"##이던":17202,"보며":17203,"김문":17204,"망한":17205,"찍을":17206,"속에":17207,"한국경제":17208,"집으로":17209,"꼴을":17210,"##불매":17211,"선동하고":17212,"떨어진다":17213,"##들임":17214,"##사오":17215,"살인죄":17216,"끝장":17217,"##정지":17218,"##같지":17219,"소문":17220,"나가면":17221,"##제일":17222,"붙여":17223,"##냅니다":17224,"##연대":17225,"반려":17226,"jtbc":17227,"불리하면":17228,"굶어죽":17229,"바꾼":17230,"귀신":17231,"눌러":17232,"못하겠":17233,"못들어":17234,"흐름":17235,"##위원회":17236,"##트리":17237,"시선":17238,"꾸준":17239,"경비":17240,"그따위":17241,"##나라를":17242,"다른게":17243,"나한테":17244,"난리를":17245,"28":17246,"왠지":17247,"##내에":17248,"자고":17249,"##시적":17250,"펀드":17251,"이정부는":17252,"알고나":17253,"조공":17254,"파렴치":17255,"혐의":17256,"모른척":17257,"##인증":17258,"퍼주기":17259,"##새끼야":17260,"고3":17261,"한가지":17262,"##빨갱":17263,"잃은":17264,"##입으로":17265,"모자랄":17266,"저들은":17267,"##갔는데":17268,"메갈":17269,"##자본":17270,"해주는":17271,"##들인데":17272,"##저나":17273,"##셔야죠":17274,"씌우":17275,"한결":17276,"강원도":17277,"하나님의":17278,"WHO":17279,"책임지":17280,"##돌려":17281,"##이긴":17282,"##사장":17283,"가둬":17284,"##실장":17285,"초반":17286,"##지않아":17287,"곳에서":17288,"개망신":17289,"##말든":17290,"관심을":17291,"박정희가":17292,"해도해도":17293,"##되기":17294,"##스도":17295,"가도":17296,"##쪽은":17297,"종자":17298,"##다며":17299,"사람들만":17300,"발끈":17301,"##작업":17302,"##나이":17303,"머리를":17304,"##의원님":17305,"엄격":17306,"##장악":17307,"##야지요":17308,"의심이":17309,"된다면":17310,"행동으로":17311,"없죠":17312,"계란":17313,"##스럽습니다":17314,"안간":17315,"##하시오":17316,"소나":17317,"트위":17318,"자식들은":17319,"##ho":17320,"꼬봉":17321,"너네는":17322,"푸하하":17323,"욕만":17324,"일이나":17325,"상당히":17326,"추미애는":17327,"##치매":17328,"##현실":17329,"말좀":17330,"줄여":17331,"##라는거":17332,"세월호는":17333,"##하더라도":17334,"##대니":17335,"##없습니다":17336,"00":17337,"사항":17338,"##감도":17339,"자한당과":17340,"제명":17341,"주둥이로":17342,"차려":17343,"31번":17344,"##es":17345,"네이버는":17346,"##명씩":17347,"반면":17348,"##겄다":17349,"임명한":17350,"양쪽":17351,"##당께":17352,"##여성":17353,"철저한":17354,"백퍼":17355,"한심하고":17356,"열일":17357,"집착":17358,"없어질":17359,"멋지다":17360,"##더러":17361,"본질을":17362,"에어":17363,"##이에요":17364,"속지":17365,"국민의짐":17366,"##줄께":17367,"통치":17368,"##거짓":17369,"자손":17370,"##나왔":17371,"조사하고":17372,"##나라냐":17373,"고양이":17374,"불의":17375,"핑계로":17376,"##정상":17377,"수사는":17378,"아니에요":17379,"공영방송":17380,"##해줬":17381,"##할까요":17382,"브랜드":17383,"중독":17384,"부적":17385,"있는거다":17386,"횡령":17387,"##말대로":17388,"개돼지가":17389,"현충":17390,"올렸":17391,"##시를":17392,"##선택":17393,"민좃당":17394,"놔두":17395,"##가보네":17396,"##파괴":17397,"##도아니고":17398,"답없다":17399,"일해서":17400,"문쩝쩝":17401,"야당은":17402,"tv":17403,"아이돌":17404,"있구만":17405,"멋지":17406,"##하는건데":17407,"한명도":17408,"내리고":17409,"독재를":17410,"선출":17411,"경향":17412,"##나네요":17413,"##하지마세요":17414,"경제에":17415,"기다리고":17416,"대통령이란":17417,"얘기가":17418,"##ec":17419,"재건축":17420,"##돼서":17421,"만들자":17422,"##비어":17423,"##생명":17424,"가중":17425,"부모도":17426,"##바란다":17427,"양도세":17428,"##ㅡㅡㅡ":17429,"향해":17430,"##구에":17431,"인신":17432,"지켜보고":17433,"대구시민":17434,"임차":17435,"##벗고":17436,"고기":17437,"당을":17438,"얘기는":17439,"일산":17440,"장담":17441,"반영":17442,"##이야기":17443,"부끄럽지":17444,"##읍시다":17445,"성폭력":17446,"방법은":17447,"엉터리":17448,"동원해서":17449,"중산층":17450,"제압":17451,"짓거리를":17452,"오거돈":17453,"##TBC":17454,"으이구":17455,"무력":17456,"진정성":17457,"풍년":17458,"사퇴하라":17459,"##였다면":17460,"한개":17461,"##나라는":17462,"영입":17463,"##염병":17464,"##해줘라":17465,"##이냐고":17466,"이냐":17467,"대표가":17468,"편법":17469,"국민한테":17470,"##것이지":17471,"##사에서":17472,"되겠다":17473,"##프로가":17474,"##란히":17475,"소리냐":17476,"##케이":17477,"늘려":17478,"주위에":17479,"인스타":17480,"거라고":17481,"압수":17482,"살다살다":17483,"저것들이":17484,"##바다":17485,"챙기고":17486,"땅에":17487,"국민만":17488,"##되니까":17489,"막는":17490,"속도":17491,"##데요":17492,"어이없는":17493,"유승준":17494,"아동학대":17495,"의존":17496,"기안":17497,"##오게":17498,"조선일보가":17499,"가르치":17500,"아이러니":17501,"##쩌고":17502,"##하곤":17503,"##간을":17504,"외출":17505,"할말은":17506,"여군":17507,"검찰개혁이":17508,"봤다":17509,"강연":17510,"이중성":17511,"##도못":17512,"아빠가":17513,"욕나온다":17514,"할일이":17515,"일가":17516,"찐따":17517,"몰수":17518,"일자리가":17519,"오버":17520,"##한다는게":17521,"골수":17522,"망친":17523,"많냐":17524,"싶습니다":17525,"자격도":17526,"맞지만":17527,"##일으":17528,"좃선일보":17529,"청와대와":17530,"나왔는데":17531,"##단에":17532,"자율":17533,"했습니다":17534,"1인당":17535,"했겠지":17536,"##운운":17537,"지능이":17538,"낙하":17539,"예약":17540,"너무하네":17541,"덕에":17542,"올인":17543,"##정도면":17544,"조금씩":17545,"정신차리지":17546,"그런건":17547,"세력이":17548,"##째로":17549,"공공의대":17550,"##았어":17551,"가관이다":17552,"기가찬다":17553,"국제사회":17554,"환수":17555,"놈을":17556,"민주주의가":17557,"호구로":17558,"##애비":17559,"##역시":17560,"고등학생":17561,"천만":17562,"##미달":17563,"부처":17564,"##함에":17565,"조사해":17566,"##했니":17567,"자리가":17568,"가져다":17569,"##조기":17570,"출입":17571,"##가루":17572,"##의미":17573,"초기에":17574,"이새":17575,"##어지":17576,"##유착":17577,"강제징용":17578,"그분":17579,"개표":17580,"정청래":17581,"즈그":17582,"##보며":17583,"예외":17584,"멈추":17585,"가족을":17586,"잘못하면":17587,"##국적":17588,"##모델":17589,"좌좀들":17590,"본질":17591,"##번방":17592,"단단히":17593,"##화된":17594,"고스톱":17595,"##급여":17596,"##3년":17597,"##포함":17598,"##망정":17599,"여기까지":17600,"##보이는":17601,"##해보자":17602,"##았던":17603,"작정":17604,"무사":17605,"식구":17606,"너네들":17607,"싸다":17608,"어거지":17609,"##교사":17610,"옮겨":17611,"은혜":17612,"##로당":17613,"##부부":17614,"수정":17615,"강용":17616,"##위의":17617,"허접":17618,"확신":17619,"다시한번":17620,"##정책을":17621,"##국민들이":17622,"개구리":17623,"물량":17624,"깨닫":17625,"골빈":17626,"##되겠네":17627,"정의와":17628,"밝혀야":17629,"깔아":17630,"사냥":17631,"거짓과":17632,"경찰에":17633,"cctv":17634,"70년":17635,"언제는":17636,"xx":17637,"가능성":17638,"보수를":17639,"세계적으로":17640,"버려라":17641,"##자리에":17642,"짱깨들":17643,"##독립":17644,"##팔고":17645,"곳은":17646,"배민":17647,"여론을":17648,"극치":17649,"기반":17650,"대깨문은":17651,"건강보험":17652,"잊지":17653,"##시키들":17654,"저질렀":17655,"##만으로도":17656,"법정":17657,"새끼는":17658,"##린게":17659,"##말아":17660,"안철수는":17661,"##틀러":17662,"쿠데타":17663,"먹고사는":17664,"백신을":17665,"인과":17666,"욕하면":17667,"중요하지":17668,"##제목":17669,"이런일":17670,"들어야":17671,"자리를":17672,"터지":17673,"##서울":17674,"남한테":17675,"아니란":17676,"원흉":17677,"##하기가":17678,"죽었":17679,"마스크가":17680,"##자너":17681,"원자력":17682,"의원이":17683,"잘하세요":17684,"새끼들아":17685,"##소는":17686,"맹목":17687,"이상은":17688,"현명한":17689,"차명진":17690,"모르는데":17691,"##았으니":17692,"##ㅇㅇ":17693,"잔뜩":17694,"다니면서":17695,"##집을":17696,"주는게":17697,"주먹":17698,"발언을":17699,"##en":17700,"##수지":17701,"##들어가":17702,"놈의":17703,"데이터":17704,"##설치":17705,"100만":17706,"굉장히":17707,"##경쟁":17708,"문대통령님":17709,"삶은소대가리":17710,"나와라":17711,"무소불":17712,"와우":17713,"영탁":17714,"오리발":17715,"이나라에":17716,"##말씀":17717,"우병":17718,"종교가":17719,"바랄":17720,"일할":17721,"총알":17722,"##연장":17723,"##릴려고":17724,"##딩이":17725,"사지":17726,"정체가":17727,"떨어졌":17728,"광화문에서":17729,"확률":17730,"수밖에":17731,"불쌍타":17732,"거짓말로":17733,"국토부":17734,"##거리며":17735,"느끼는":17736,"##위에서":17737,"##등을":17738,"##너지":17739,"찌질이":17740,"##깝다":17741,"먹여살":17742,"##혀라":17743,"위해서는":17744,"손으로":17745,"3000":17746,"개박살":17747,"##뜨고":17748,"난리치":17749,"##퇴근":17750,"감찰":17751,"##기록":17752,"들어도":17753,"기성":17754,"##아줌마":17755,"##기싫":17756,"##좀비":17757,"##국가가":17758,"선한":17759,"없나요":17760,"##억을":17761,"전국에":17762,"평생을":17763,"외노":17764,"##시라":17765,"##했어도":17766,"아따":17767,"종교의":17768,"감옥에서":17769,"##주사파":17770,"소독":17771,"##아빠":17772,"두고보자":17773,"뇌피셜":17774,"배치":17775,"##하는건지":17776,"아이디어":17777,"##일수도":17778,"혈세로":17779,"일본이랑":17780,"지금부터":17781,"건보료":17782,"민식이법":17783,"시키면":17784,"정권이다":17785,"예술":17786,"도둑놈":17787,"대구시장":17788,"내돈":17789,"단기":17790,"우짜":17791,"북한한테":17792,"##이라곤":17793,"안들면":17794,"토지":17795,"말고는":17796,"괜찮고":17797,"선배":17798,"홍준표가":17799,"##선은":17800,"##인격":17801,"##없다는":17802,"유발":17803,"거죠":17804,"이놈은":17805,"##아이가":17806,"##정도는":17807,"댓글다는":17808,"JTBC":17809,"공평하게":17810,"##이야말로":17811,"사형시켜라":17812,"않았는데":17813,"문제임":17814,"싸우는":17815,"하는것도":17816,"저런것들이":17817,"신재":17818,"##드리":17819,"한편":17820,"트위터":17821,"##인다고":17822,"이나라의":17823,"##수칙":17824,"어쨌든":17825,"쓰네":17826,"##때문이다":17827,"예정":17828,"##TV":17829,"거론":17830,"비방":17831,"돌아가신":17832,"이거지":17833,"태국":17834,"##차로":17835,"교수가":17836,"##나는데":17837,"개만도":17838,"숨어서":17839,"나왔다":17840,"불로소득":17841,"##이라고는":17842,"부끄럽지도":17843,"툭하면":17844,"안좋아":17845,"지나가던":17846,"통수":17847,"후보자":17848,"미통당이":17849,"##먹기":17850,"뽑아야":17851,"저사람":17852,"##1위":17853,"##들이라":17854,"속은":17855,"저것":17856,"생각보다":17857,"##놨네":17858,"말이나":17859,"의심스럽다":17860,"상실":17861,"기원합니다":17862,"인권이":17863,"님이":17864,"mbc":17865,"배울":17866,"기가차":17867,"벗고":17868,"##월급":17869,"몸이":17870,"##오냐":17871,"얼굴을":17872,"많구나":17873,"진보가":17874,"##하단":17875,"##보드":17876,"막아라":17877,"정세균":17878,"우주":17879,"노무현이":17880,"저승":17881,"##기능":17882,"돌리고":17883,"이들":17884,"박수를":17885,"안되네":17886,"들어라":17887,"##무를":17888,"##먹어":17889,"발로":17890,"사정":17891,"##움을":17892,"##도없이":17893,"나고":17894,"##리니까":17895,"이야기를":17896,"죄값을":17897,"며느":17898,"##시게":17899,"다르냐":17900,"거절":17901,"저인간":17902,"##했더니":17903,"헬스":17904,"천막":17905,"추측":17906,"나오나":17907,"군대를":17908,"##차에":17909,"사회생활":17910,"지인":17911,"희한":17912,"꼴갑":17913,"##두각":17914,"보이나":17915,"개한민국":17916,"될텐데":17917,"##시나요":17918,"외치고":17919,"불교":17920,"꼬투리":17921,"따르는":17922,"알고있":17923,"비겁한":17924,"##문제는":17925,"터트":17926,"사이비종교":17927,"##상식":17928,"쓰레기야":17929,"##연한":17930,"##일지":17931,"밀어부":17932,"바글":17933,"책임져야":17934,"사랑합니다":17935,"놈아":17936,"판단을":17937,"설치는":17938,"생각해도":17939,"외모":17940,"찍는":17941,"호의":17942,"뭐든지":17943,"##진거":17944,"하더만":17945,"##mf":17946,"작년에":17947,"말라는":17948,"법률":17949,"미쳤구나":17950,"감기":17951,"경제폭망":17952,"닭대가리":17953,"##리만":17954,"바가지":17955,"않지":17956,"##질않":17957,"그나저나":17958,"##발표":17959,"관대":17960,"전쟁나면":17961,"신라":17962,"##방법":17963,"ㄱㅐ":17964,"놀아나는":17965,"##주길":17966,"##개표":17967,"##힘든":17968,"주접":17969,"예능":17970,"남자들은":17971,"주옥":17972,"슬프다":17973,"##정하게":17974,"잠수":17975,"1명":17976,"그런지":17977,"##트는":17978,"##준거":17979,"##해보세요":17980,"체크":17981,"보편":17982,"창궐":17983,"##확인":17984,"##임명":17985,"부르는":17986,"##정부의":17987,"##이라면서":17988,"생기는":17989,"##게하고":17990,"첨부터":17991,"##스쿨":17992,"##하겠나":17993,"합리적인":17994,"오지랖":17995,"##제대로":17996,"저따위":17997,"##것으로":17998,"배우고":17999,"수학":18000,"100프로":18001,"알겠지":18002,"##씩이나":18003,"##짓고":18004,"인권은":18005,"##할까봐":18006,"##시장이":18007,"고등학교":18008,"보태":18009,"연대":18010,"근대":18011,"채우":18012,"그지같은":18013,"억압":18014,"좋은거":18015,"볼수":18016,"##제네카":18017,"##말이다":18018,"##계약":18019,"##봤으면":18020,"사실이면":18021,"갤럭":18022,"지원을":18023,"자발적으로":18024,"야권":18025,"넘어갈":18026,"대구는":18027,"쪼다":18028,"먹어라":18029,"인간이다":18030,"버릴":18031,"삼청":18032,"털고":18033,"알겠는데":18034,"용돈":18035,
[...]
